{
  "version": "1.0",
  "truncation": null,
  "padding": null,
  "added_tokens": [
    {
      "id": 0,
      "content": "<|endoftext|>",
      "single_word": false,
      "lstrip": false,
      "rstrip": false,
      "normalized": false,
      "special": true
    },
    {
      "id": 1,
      "content": "[MASK]",
      "single_word": false,
      "lstrip": false,
      "rstrip": false,
      "normalized": false,
      "special": true
    },
    {
      "id": 2,
      "content": "[PAD]",
      "single_word": false,
      "lstrip": false,
      "rstrip": false,
      "normalized": false,
      "special": true
    }
  ],
  "normalizer": null,
  "pre_tokenizer": {
    "type": "ByteLevel",
    "add_prefix_space": false,
    "trim_offsets": true,
    "use_regex": true
  },
  "post_processor": {
    "type": "TemplateProcessing",
    "single": [
      {
        "Sequence": {
          "id": "A",
          "type_id": 0
        }
      }
    ],
    "pair": [
      {
        "Sequence": {
          "id": "A",
          "type_id": 0
        }
      },
      {
        "Sequence": {
          "id": "B",
          "type_id": 1
        }
      }
    ],
    "special_tokens": {}
  },
  "decoder": {
    "type": "ByteLevel",
    "add_prefix_space": true,
    "trim_offsets": true,
    "use_regex": true
  },
  "model": {
    "type": "BPE",
    "dropout": null,
    "unk_token": null,
    "continuing_subword_prefix": null,
    "end_of_word_suffix": null,
    "fuse_unk": false,
    "byte_fallback": false,
    "ignore_merges": false,
    "vocab": {
      "<|endoftext|>": 0,
      "[MASK]": 1,
      "[PAD]": 2,
      "!": 3,
      "\"": 4,
      "$": 5,
      "%": 6,
      "&": 7,
      "'": 8,
      "(": 9,
      ")": 10,
      "*": 11,
      "+": 12,
      ",": 13,
      "-": 14,
      ".": 15,
      "0": 16,
      "1": 17,
      "2": 18,
      "3": 19,
      "4": 20,
      "5": 21,
      "6": 22,
      "7": 23,
      "8": 24,
      "9": 25,
      ":": 26,
      ";": 27,
      "?": 28,
      "A": 29,
      "B": 30,
      "C": 31,
      "D": 32,
      "E": 33,
      "F": 34,
      "G": 35,
      "H": 36,
      "I": 37,
      "J": 38,
      "K": 39,
      "L": 40,
      "M": 41,
      "N": 42,
      "O": 43,
      "P": 44,
      "Q": 45,
      "R": 46,
      "S": 47,
      "T": 48,
      "U": 49,
      "V": 50,
      "W": 51,
      "X": 52,
      "Y": 53,
      "Z": 54,
      "[": 55,
      "\\": 56,
      "]": 57,
      "_": 58,
      "`": 59,
      "a": 60,
      "b": 61,
      "c": 62,
      "d": 63,
      "e": 64,
      "f": 65,
      "g": 66,
      "h": 67,
      "i": 68,
      "j": 69,
      "k": 70,
      "l": 71,
      "m": 72,
      "n": 73,
      "o": 74,
      "p": 75,
      "q": 76,
      "r": 77,
      "s": 78,
      "t": 79,
      "u": 80,
      "v": 81,
      "w": 82,
      "x": 83,
      "y": 84,
      "z": 85,
      "|": 86,
      "~": 87,
      "¡": 88,
      "¢": 89,
      "¦": 90,
      "©": 91,
      "«": 92,
      "¬": 93,
      "¯": 94,
      "°": 95,
      "±": 96,
      "´": 97,
      "¹": 98,
      "»": 99,
      "½": 100,
      "¿": 101,
      "Â": 102,
      "Ã": 103,
      "Å": 104,
      "Ë": 105,
      "â": 106,
      "ï": 107,
      "ĉ": 108,
      "Ċ": 109,
      "Ġ": 110,
      "Ģ": 111,
      "Ĥ": 112,
      "ĥ": 113,
      "Ħ": 114,
      "ĵ": 115,
      "ľ": 116,
      "Ŀ": 117,
      "ł": 118,
      "Ń": 119,
      "he": 120,
      "Ġt": 121,
      "Ġa": 122,
      "Ġs": 123,
      "Ġw": 124,
      "Ġthe": 125,
      "nd": 126,
      "ed": 127,
      "Ġto": 128,
      "Ġb": 129,
      "in": 130,
      "Ġwa": 131,
      "Ġand": 132,
      "it": 133,
      "re": 134,
      "Ġh": 135,
      "Ġf": 136,
      "ou": 137,
      "Ġl": 138,
      "Ġwas": 139,
      "Ġd": 140,
      "Ġhe": 141,
      "Ġc": 142,
      "er": 143,
      "Ġp": 144,
      "Ġm": 145,
      "on": 146,
      "ay": 147,
      "ar": 148,
      "om": 149,
      "ĠT": 150,
      "ing": 151,
      "Ġg": 152,
      "id": 153,
      "is": 154,
      "il": 155,
      "im": 156,
      "Ġsa": 157,
      "en": 158,
      "ĠS": 159,
      "at": 160,
      "Ġn": 161,
      "Ġit": 162,
      "le": 163,
      "ll": 164,
      "an": 165,
      "Ġo": 166,
      "ĠThe": 167,
      "Ġha": 168,
      "On": 169,
      "Ġher": 170,
      "ĠH": 171,
      "or": 172,
      "Ġin": 173,
      "ir": 174,
      "Ġu": 175,
      "Ġth": 176,
      "ce": 177,
      "et": 178,
      "ĠShe": 179,
      "ut": 180,
      "ver": 181,
      "ĠHe": 182,
      "ot": 183,
      "ig": 184,
      "am": 185,
      "ked": 186,
      "ow": 187,
      "ld": 188,
      "Ġday": 189,
      "Ġr": 190,
      "Ġshe": 191,
      "ily": 192,
      "Ġe": 193,
      "Ġup": 194,
      "Ġst": 195,
      "ke": 196,
      "oo": 197,
      "ith": 198,
      "nt": 199,
      "Ġwith": 200,
      "Ġpl": 201,
      "ck": 202,
      "Lily": 203,
      "very": 204,
      "Ġbe": 205,
      "Ġsaid": 206,
      "Ġ\"": 207,
      "Ġon": 208,
      "Ġso": 209,
      "Ġhis": 210,
      "ri": 211,
      "es": 212,
      "Ġthere": 213,
      "ĠI": 214,
      "Ġplay": 215,
      "tle": 216,
      "Ġof": 217,
      "One": 218,
      "my": 219,
      "ĠThey": 220,
      "pp": 221,
      "ime": 222,
      "Ġtime": 223,
      "Ġy": 224,
      "ĠLily": 225,
      "Once": 226,
      "ittle": 227,
      "ve": 228,
      "Ġwant": 229,
      "ad": 230,
      "Ġli": 231,
      "Ġlittle": 232,
      "st": 233,
      "Ġmom": 234,
      "Ġbig": 235,
      "Ġhad": 236,
      "ound": 237,
      "ly": 238,
      "ould": 239,
      "Ġupon": 240,
      "se": 241,
      "Ġwe": 242,
      "Ġvery": 243,
      "Ġsaw": 244,
      "un": 245,
      "Ġthey": 246,
      "Ġwh": 247,
      "all": 248,
      "ĠB": 249,
      "ent": 250,
      "Ġthat": 251,
      "out": 252,
      "'s": 253,
      "ch": 254,
      "ved": 255,
      "Ġbut": 256,
      "Ġsh": 257,
      "Ġfor": 258,
      "ide": 259,
      "ĠĊ": 260,
      "The": 261,
      "end": 262,
      "Ġas": 263,
      "ht": 264,
      "irl": 265,
      "Ġwanted": 266,
      "Ġgirl": 267,
      "Ġdo": 268,
      "ĠIt": 269,
      "al": 270,
      "Ġyou": 271,
      "Ġnam": 272,
      "Ġsom": 273,
      "Ġlo": 274,
      "ĠTim": 275,
      "Ġbo": 276,
      "ra": 277,
      "ĠM": 278,
      "her": 279,
      "Ġloo": 280,
      "Ġan": 281,
      "riend": 282,
      "el": 283,
      "Ġfriend": 284,
      "ake": 285,
      "'t": 286,
      "Ġk": 287,
      "Ġnamed": 288,
      "Ġre": 289,
      "Ġne": 290,
      "Ġwere": 291,
      "ĠOne": 292,
      "ec": 293,
      "Ġout": 294,
      "ard": 295,
      "Ġhapp": 296,
      "ter": 297,
      "Ġgo": 298,
      "Ġsm": 299,
      "ic": 300,
      "Ġse": 301,
      "Ġex": 302,
      "ore": 303,
      "round": 304,
      "Ġloved": 305,
      "Ġnot": 306,
      "ack": 307,
      "Ġsp": 308,
      "hen": 309,
      "!\"": 310,
      "Ġcould": 311,
      "Ġhim": 312,
      "Ġwent": 313,
      "Ġtoo": 314,
      "art": 315,
      "Ġj": 316,
      "ark": 317,
      "ry": 318,
      "ĠJ": 319,
      "ind": 320,
      "Ġhappy": 321,
      "Ġis": 322,
      "Ġasked": 323,
      "Ġat": 324,
      "side": 325,
      "um": 326,
      "ur": 327,
      "ug": 328,
      "hing": 329,
      "ĠTimmy": 330,
      "Ġcl": 331,
      "Ġaround": 332,
      "fu": 333,
      "Ġdid": 334,
      ".\"": 335,
      "Ġfriends": 336,
      "Ġboy": 337,
      "ill": 338,
      "Ġall": 339,
      "ĠA": 340,
      "ight": 341,
      "hed": 342,
      "oug": 343,
      "Ġtoy": 344,
      "Ġstart": 345,
      "way": 346,
      "Ġlike": 347,
      "?\"": 348,
      "ss": 349,
      "Ġbir": 350,
      "Ġro": 351,
      "Ġfr": 352,
      "Ġlooked": 353,
      "one": 354,
      "Ġhel": 355,
      "Ġman": 356,
      "ame": 357,
      "Ġbird": 358,
      "Ġhelp": 359,
      "Ġstarted": 360,
      "Ġsc": 361,
      "Ġbr": 362,
      "Ġpark": 363,
      "Ġthem": 364,
      "Ġsee": 365,
      "Ġsome": 366,
      "dd": 367,
      "ree": 368,
      "Ġkn": 369,
      "ful": 370,
      "Ġwho": 371,
      "ited": 372,
      "ĠBen": 373,
      "king": 374,
      "Ġtheir": 375,
      "ĠTom": 376,
      "Ġsomet": 377,
      "Ġexc": 378,
      "Ġwould": 379,
      "ain": 380,
      "Ġca": 381,
      "Ġliked": 382,
      "Ġno": 383,
      "ong": 384,
      "ie": 385,
      "Ġsmil": 386,
      "Ġwal": 387,
      "Ġdec": 388,
      "op": 389,
      "Ġsomething": 390,
      "Ġhave": 391,
      "ome": 392,
      "Ġfa": 393,
      "Ġfe": 394,
      "own": 395,
      "Ġco": 396,
      "Ġfun": 397,
      "elt": 398,
      "Ġwhat": 399,
      "Ġmake": 400,
      "Ġcan": 401,
      "ure": 402,
      "Ġexcited": 403,
      "ood": 404,
      "Ġplaying": 405,
      "ĠBut": 406,
      "ided": 407,
      "Ġdecided": 408,
      "Ġfelt": 409,
      "Ġare": 410,
      "Ġfound": 411,
      "Ġran": 412,
      "ice": 413,
      "Ġal": 414,
      "Ġwor": 415,
      "ag": 416,
      "ĠE": 417,
      "ings": 418,
      "Ġcar": 419,
      "ick": 420,
      "pl": 421,
      "udd": 422,
      "if": 423,
      "ared": 424,
      "Ġput": 425,
      "Ġfl": 426,
      "ought": 427,
      "ade": 428,
      "Ã¢": 429,
      "Ġgot": 430,
      "Ġcame": 431,
      "Ġsad": 432,
      "ny": 433,
      "âĤ": 434,
      "âĤ¬": 435,
      "Ġwhen": 436,
      "Ġoutside": 437,
      "ally": 438,
      "ook": 439,
      "pped": 440,
      "ell": 441,
      "ab": 442,
      "ried": 443,
      "qu": 444,
      "us": 445,
      "Ġsw": 446,
      "Ġle": 447,
      "Ġsmiled": 448,
      "Ġback": 449,
      "Ġmade": 450,
      "Ġme": 451,
      "Ġch": 452,
      "udden": 453,
      "ĠL": 454,
      "ouse": 455,
      "Ġbl": 456,
      "Ġfrom": 457,
      "Ġdidn": 458,
      "Ġmommy": 459,
      "get": 460,
      "as": 461,
      "Ġget": 462,
      "ĠW": 463,
      "Ġone": 464,
      "uddenly": 465,
      "Ġaway": 466,
      "ous": 467,
      "Ġthen": 468,
      "ax": 469,
      "oud": 470,
      "ep": 471,
      "Ġfind": 472,
      "Ġtree": 473,
      "Ġbec": 474,
      "uck": 475,
      "Ġnew": 476,
      "Ġdown": 477,
      ",\"": 478,
      "ue": 479,
      "Ġscared": 480,
      "gether": 481,
      "Ġevery": 482,
      "Ġold": 483,
      "ret": 484,
      "hat": 485,
      "Ġtoys": 486,
      "Ġv": 487,
      "Ġla": 488,
      "Ġthought": 489,
      "ro": 490,
      "ite": 491,
      "Ġlot": 492,
      "Ġgra": 493,
      "ers": 494,
      "ust": 495,
      "Ġthings": 496,
      "uch": 497,
      "Ġtogether": 498,
      "ach": 499,
      "Ġpa": 500,
      "Ġcat": 501,
      "Ġsay": 502,
      "Ġpo": 503,
      "Ġdog": 504,
      "eci": 505,
      "Ġdad": 506,
      "ĠEvery": 507,
      "Ġtook": 508,
      "Ġint": 509,
      "Ġball": 510,
      "Ġlook": 511,
      "ther": 512,
      "au": 513,
      "ara": 514,
      "ched": 515,
      "ĠMax": 516,
      "Ġpic": 517,
      "ĠD": 518,
      "ty": 519,
      "Ġtw": 520,
      "Ġab": 521,
      "ecial": 522,
      "Ġspecial": 523,
      "Ġhome": 524,
      "Ġho": 525,
      "ise": 526,
      "Ġhouse": 527,
      "Ġother": 528,
      "Ġke": 529,
      "Ġpr": 530,
      "Ġtake": 531,
      "ened": 532,
      "our": 533,
      "ause": 534,
      "Ġtried": 535,
      "Ġsk": 536,
      "ĠSam": 537,
      "Ġpret": 538,
      "Ġbecause": 539,
      "Ġsun": 540,
      "nn": 541,
      "Ġpe": 542,
      "Ġrun": 543,
      "Ġcouldn": 544,
      "Ġsmall": 545,
      "Ġmany": 546,
      "But": 547,
      "ge": 548,
      "ump": 549,
      "Ġexpl": 550,
      "Ġclo": 551,
      "Ġover": 552,
      "Ġinside": 553,
      "Ġheard": 554,
      "Ġfeel": 555,
      "ave": 556,
      "Ġsl": 557,
      "ant": 558,
      "Ġop": 559,
      "Ġshow": 560,
      "Ġinto": 561,
      "ace": 562,
      "Ġwater": 563,
      "nder": 564,
      "Ġcare": 565,
      "Ġtold": 566,
      "dy": 567,
      "Ġmo": 568,
      "Ġeat": 569,
      "ile": 570,
      "fter": 571,
      "fe": 572,
      "Ġqu": 573,
      "here": 574,
      "ma": 575,
      "Ġsays": 576,
      "Ġabout": 577,
      "bb": 578,
      "ist": 579,
      "Ġroom": 580,
      "nna": 581,
      "Ġbox": 582,
      "Ġstr": 583,
      "Ġcall": 584,
      "Ġbu": 585,
      "Ġhow": 586,
      "Ġknow": 587,
      "ĠJack": 588,
      "ish": 589,
      "Ġag": 590,
      "Ġshin": 591,
      "Ġcol": 592,
      "ink": 593,
      "ia": 594,
      "imal": 595,
      "Ġanimal": 596,
      "Ġkne": 597,
      "ĠMom": 598,
      "Ġif": 599,
      "ap": 600,
      "ĠSo": 601,
      "Ġmuch": 602,
      "ways": 603,
      "Ġtr": 604,
      "ive": 605,
      "Ġgard": 606,
      "Ġgarden": 607,
      "ear": 608,
      "Ġalways": 609,
      "Ġlived": 610,
      "Ġlaug": 611,
      "uc": 612,
      "Ġlong": 613,
      "Ġflow": 614,
      "Ġmy": 615,
      "ĠJo": 616,
      "Ġcom": 617,
      "Ġsky": 618,
      "Ġhand": 619,
      "ob": 620,
      "est": 621,
      "Ġwat": 622,
      "ild": 623,
      "ĠHer": 624,
      "Ġbear": 625,
      "ning": 626,
      "Ġjump": 627,
      "Ġcalled": 628,
      "reat": 629,
      "ion": 630,
      "other": 631,
      "ough": 632,
      "Ġlots": 633,
      "Ġfast": 634,
      "ĠSara": 635,
      "lf": 636,
      "Ġor": 637,
      "Ġknew": 638,
      "Ġtry": 639,
      "Ġany": 640,
      "ine": 641,
      "You": 642,
      "Ġgave": 643,
      "lly": 644,
      "ving": 645,
      "ĠHis": 646,
      "Ġloud": 647,
      "Tom": 648,
      "Ġfo": 649,
      "Ġgood": 650,
      "ate": 651,
      "hn": 652,
      "They": 653,
      "Ġthis": 654,
      "Ġneed": 655,
      "Ġunt": 656,
      "rent": 657,
      "Ġbea": 658,
      "ven": 659,
      "pt": 660,
      "Ġuntil": 661,
      "Ġanimals": 662,
      "Ġsn": 663,
      "ĠF": 664,
      "Ġyour": 665,
      "Ġwalking": 666,
      "Ġred": 667,
      "Ġby": 668,
      "ct": 669,
      "Ġdre": 670,
      "Ġcu": 671,
      "Ġshiny": 672,
      "Tim": 673,
      "Ġpu": 674,
      "lew": 675,
      "Ġagain": 676,
      "Ġclos": 677,
      "Ġfam": 678,
      "When": 679,
      "Ġoff": 680,
      "Let": 681,
      "ft": 682,
      "Mom": 683,
      "Ġtwo": 684,
      "able": 685,
      "Ġexplore": 686,
      "Ġbeaut": 687,
      "Ġar": 688,
      "Ġplayed": 689,
      "Ġhug": 690,
      "igh": 691,
      "iz": 692,
      "Ġen": 693,
      "ucy": 694,
      "iced": 695,
      "He": 696,
      "ane": 697,
      "Ġmore": 698,
      "urp": 699,
      "Ġpretty": 700,
      "wn": 701,
      "Ġgoing": 702,
      "Ġwalked": 703,
      "ool": 704,
      "Ġbeauti": 705,
      "ting": 706,
      "Ġbeautiful": 707,
      "Ġta": 708,
      "Ġjust": 709,
      "Ġfly": 710,
      "ied": 711,
      "ĠSuddenly": 712,
      "ople": 713,
      "Ġhard": 714,
      "ady": 715,
      "Ġnoticed": 716,
      "Ġwill": 717,
      "Ġground": 718,
      "Ġnice": 719,
      "ort": 720,
      "Ġfamily": 721,
      "Can": 722,
      "Åĵ": 723,
      "Suddenly": 724,
      "ĠAnna": 725,
      "oth": 726,
      "ĠThen": 727,
      "ĠMia": 728,
      "Ġgr": 729,
      "Ġcolor": 730,
      "Ġcle": 731,
      "Ġfore": 732,
      "and": 733,
      "Ġpeople": 734,
      "It": 735,
      "What": 736,
      "Ġwind": 737,
      "Ġflew": 738,
      "vent": 739,
      "etter": 740,
      "Ġkept": 741,
      "Ġrock": 742,
      "Ġad": 743,
      "ank": 744,
      "imb": 745,
      "Ġfar": 746,
      "Ġyear": 747,
      "Ġche": 748,
      "Ġnoise": 749,
      "Ġclimb": 750,
      "Ġte": 751,
      "hes": 752,
      "ĠWhen": 753,
      "Ġfi": 754,
      "Yes": 755,
      "ĠÃ¢": 756,
      "Ġbra": 757,
      "ĠLucy": 758,
      "Ġrepl": 759,
      "ummy": 760,
      "ase": 761,
      "Ġopened": 762,
      "Ġpicked": 763,
      "Ġide": 764,
      "ves": 765,
      "sed": 766,
      "ary": 767,
      "are": 768,
      "Ġnear": 769,
      "les": 770,
      "Ġjo": 771,
      "No": 772,
      "gry": 773,
      "urn": 774,
      "Ġbook": 775,
      "Ġidea": 776,
      "ered": 777,
      "Ġway": 778,
      "led": 779,
      "Ġwhile": 780,
      "Ġwo": 781,
      "Ġreplied": 782,
      "ĠP": 783,
      "Ġwalk": 784,
      "Ġthr": 785,
      "Ġtre": 786,
      "ture": 787,
      "Ġforest": 788,
      "Ġdra": 789,
      "self": 790,
      "illy": 791,
      "Ġlaughed": 792,
      "ies": 793,
      "Ġdoor": 794,
      "Ġsto": 795,
      "Ġlooking": 796,
      "Ġits": 797,
      "Ġflowers": 798,
      "Ġthree": 799,
      "Ġblue": 800,
      "So": 801,
      "urpr": 802,
      "Ġkind": 803,
      "Ġeven": 804,
      "Ġdan": 805,
      "ged": 806,
      "Ġsurpr": 807,
      "ted": 808,
      "Ġbright": 809,
      "Ġhur": 810,
      "Ġkit": 811,
      "Ġdon": 812,
      "fore": 813,
      "ip": 814,
      "Ġstore": 815,
      "Ġfood": 816,
      "Ġunder": 817,
      "Ġstay": 818,
      "abb": 819,
      "Ġdoll": 820,
      "gan": 821,
      "Ġcloser": 822,
      "Ġim": 823,
      "Ġdif": 824,
      "Ġnever": 825,
      "ĠYou": 826,
      "'m": 827,
      "abbit": 828,
      "Ġhas": 829,
      "Ġbrave": 830,
      "Ġun": 831,
      "mb": 832,
      "arn": 833,
      "Ġac": 834,
      "age": 835,
      "Ġcome": 836,
      "Ġhigh": 837,
      "ess": 838,
      "Ġfin": 839,
      "ĠSp": 840,
      "Ġma": 841,
      "Ġfish": 842,
      "Ġgre": 843,
      "Ġpicture": 844,
      "Ġcareful": 845,
      "day": 846,
      "Ġbest": 847,
      "Ġey": 848,
      "ff": 849,
      "Ġrabbit": 850,
      "Look": 851,
      "Ġbetter": 852,
      "Ġbefore": 853,
      "Ġeach": 854,
      "Ġthan": 855,
      "ange": 856,
      "Ġslide": 857,
      "Ġfav": 858,
      "Ġtruck": 859,
      "Ġcuri": 860,
      "Ġstopped": 861,
      "ak": 862,
      "Ġwar": 863,
      "Ġplace": 864,
      "Ġquick": 865,
      "irst": 866,
      "Ġproud": 867,
      "Ġvo": 868,
      "Ġcurious": 869,
      "ock": 870,
      "ĠBob": 871,
      "Ġrain": 872,
      "Ġlist": 873,
      "Ġdress": 874,
      "Ġapp": 875,
      "hy": 876,
      "thing": 877,
      "Ġtow": 878,
      "Ġfeeling": 879,
      "Ġshowed": 880,
      "Ġclean": 881,
      "âĤ¬â": 882,
      "Ġboat": 883,
      "Ġsoon": 884,
      "Ġyell": 885,
      "eet": 886,
      "Ġbed": 887,
      "Ġwr": 888,
      "Ġcry": 889,
      "Jo": 890,
      "Ġturn": 891,
      "Ġtra": 892,
      "ĠSue": 893,
      "Ġdiffe": 894,
      "Ġquickly": 895,
      "Ġadvent": 896,
      "Ġhurt": 897,
      "Ġdifferent": 898,
      "Ġwatch": 899,
      "unny": 900,
      "Ġsqu": 901,
      "ĠSpot": 902,
      "bbed": 903,
      "Ġyears": 904,
      "Ġeyes": 905,
      "As": 906,
      "ious": 907,
      "ac": 908,
      "Ġgl": 909,
      "Ġstrong": 910,
      "ised": 911,
      "Ġlet": 912,
      "ĠDad": 913,
      "Ġpick": 914,
      "Ġvoice": 915,
      "Ġbus": 916,
      "Ġkeep": 917,
      "Ġde": 918,
      "Ħ¢": 919,
      "Ġgrass": 920,
      "âĤ¬âĦ¢": 921,
      "og": 922,
      "ble": 923,
      "Ġbirds": 924,
      "Ġthrough": 925,
      "Ġwhere": 926,
      "me": 927,
      "ger": 928,
      "Ġsound": 929,
      "ĠJohn": 930,
      "oon": 931,
      "ught": 932,
      "Ġfavor": 933,
      "After": 934,
      "ount": 935,
      "Ġfavorite": 936,
      "Ġhands": 937,
      "where": 938,
      "ĠSarah": 939,
      "ĠAs": 940,
      "Ġown": 941,
      "Ġdel": 942,
      "be": 943,
      "ĠJane": 944,
      "Ġbutter": 945,
      "Ġboth": 946,
      "xt": 947,
      "chen": 948,
      "Ġlea": 949,
      "Ġkitchen": 950,
      "Ġtal": 951,
      "Ġbegan": 952,
      "Ġchild": 953,
      "Ġnight": 954,
      "Ġstill": 955,
      "Ġsafe": 956,
      "ached": 957,
      "per": 958,
      "Ġsand": 959,
      "Ġwatched": 960,
      "isy": 961,
      "Ġbunny": 962,
      "Ġbad": 963,
      "Ġopen": 964,
      "maz": 965,
      "Ġlearn": 966,
      "Ġadventure": 967,
      "Ġjumped": 968,
      "Ġgrabbed": 969,
      "Ġamaz": 970,
      "Ġshout": 971,
      "orn": 972,
      "Ġdis": 973,
      "Ġpretend": 974,
      "Ġstick": 975,
      "Ġbro": 976,
      "Ġz": 977,
      "Ġpain": 978,
      "Mommy": 979,
      "Her": 980,
      "Ġfirst": 981,
      "Ġgive": 982,
      "That": 983,
      "Ġsing": 984,
      "Ġbit": 985,
      "Ġreal": 986,
      "Ġpie": 987,
      "Ġtrees": 988,
      "Ben": 989,
      "Ġreally": 990,
      "Timmy": 991,
      "Ġuse": 992,
      "Ġblock": 993,
      "Ġmon": 994,
      "She": 995,
      "ins": 996,
      "Ġmum": 997,
      "Ġimp": 998,
      "ull": 999,
      "ĠG": 1000,
      "ppy": 1001,
      "Ġeveryone": 1002,
      "Ġgreen": 1003,
      "ished": 1004,
      "ream": 1005,
      "ired": 1006,
      "Ġnext": 1007,
      "Ġwork": 1008,
      "ĠJoe": 1009,
      "ather": 1010,
      "Ġsoft": 1011,
      "Ġwarm": 1012,
      "llow": 1013,
      "Ġbrother": 1014,
      "Ġdraw": 1015,
      "Ġswim": 1016,
      "Ġcon": 1017,
      "ten": 1018,
      "Ġhead": 1019,
      "his": 1020,
      "so": 1021,
      "Ġwait": 1022,
      "Ġwood": 1023,
      "ĠR": 1024,
      "ĠMommy": 1025,
      "Ġtop": 1026,
      "Ġcra": 1027,
      "ng": 1028,
      "Ġalso": 1029,
      "uff": 1030,
      "ĠEveryone": 1031,
      "Ġtall": 1032,
      "Ġprin": 1033,
      "Ġface": 1034,
      "Ġsit": 1035,
      "John": 1036,
      "Ġpond": 1037,
      "Ġcatch": 1038,
      "Ġreached": 1039,
      "olly": 1040,
      "Ġyummy": 1041,
      "Ġcoming": 1042,
      "Ġcars": 1043,
      "Ġangry": 1044,
      "iver": 1045,
      "Ġfollow": 1046,
      "Ġhopped": 1047,
      "Ġmag": 1048,
      "Ġflo": 1049,
      "ĠC": 1050,
      "lease": 1051,
      "Ġste": 1052,
      "Ġyellow": 1053,
      "ath": 1054,
      "fully": 1055,
      "Ġbutterf": 1056,
      "Ġrunning": 1057,
      "ect": 1058,
      "Ġspot": 1059,
      "Ġname": 1060,
      "Ġfarm": 1061,
      "by": 1062,
      "Ġfell": 1063,
      "ater": 1064,
      "Ġarri": 1065,
      "Ġshare": 1066,
      "Ġworld": 1067,
      "Ġfunny": 1068,
      "Ġbeh": 1069,
      "Ġcr": 1070,
      "Ġper": 1071,
      "Ġpull": 1072,
      "Ġpiece": 1073,
      "Ġgame": 1074,
      "Ġused": 1075,
      "Ġsho": 1076,
      "zy": 1077,
      "Ġfill": 1078,
      "Ġdark": 1079,
      "Ġbuy": 1080,
      "Ġstor": 1081,
      "Ġhat": 1082,
      "Ġwear": 1083,
      "aisy": 1084,
      "Ġbel": 1085,
      "Ġwonder": 1086,
      "ĠBenny": 1087,
      "leep": 1088,
      "bo": 1089,
      "Ġhaving": 1090,
      "ĠIn": 1091,
      "sh": 1092,
      "cked": 1093,
      "air": 1094,
      "ized": 1095,
      "Ġcut": 1096,
      "Ġcake": 1097,
      "Ġafter": 1098,
      "Ġmouse": 1099,
      "Ġtri": 1100,
      "Ġask": 1101,
      "rel": 1102,
      "Ġhair": 1103,
      "Ġarrived": 1104,
      "Ġseen": 1105,
      "Anna": 1106,
      "Ġflower": 1107,
      "ndma": 1108,
      "ĠWe": 1109,
      "dded": 1110,
      "Ġlisten": 1111,
      "ster": 1112,
      "Ġwhy": 1113,
      "Ġhappened": 1114,
      "Ġswing": 1115,
      "Sara": 1116,
      "Ġonly": 1117,
      "Ġsmile": 1118,
      "Ġmor": 1119,
      "Ġshould": 1120,
      "imes": 1121,
      "Ġtired": 1122,
      "Ġwindow": 1123,
      "Ġthink": 1124,
      "ul": 1125,
      "ross": 1126,
      "Ġcook": 1127,
      "Ġduck": 1128,
      "co": 1129,
      "Ġneeded": 1130,
      "Ġnow": 1131,
      "Ġcolors": 1132,
      "Ġcarefully": 1133,
      "Ġbag": 1134,
      "Ġbow": 1135,
      "Ġcool": 1136,
      "ike": 1137,
      "Ġparent": 1138,
      "Ġdr": 1139,
      "Ġkid": 1140,
      "Ġend": 1141,
      "Ġsmell": 1142,
      "aby": 1143,
      "Ġblocks": 1144,
      "Ġbug": 1145,
      "Hell": 1146,
      "Hello": 1147,
      "ient": 1148,
      "Ġshouted": 1149,
      "Ġbutterfly": 1150,
      "Ġsweet": 1151,
      "Ġpart": 1152,
      "kay": 1153,
      "Ġbuild": 1154,
      "Ġready": 1155,
      "Ġhugged": 1156,
      "uit": 1157,
      "Ġtouch": 1158,
      "Ġbre": 1159,
      "ĠSally": 1160,
      "ign": 1161,
      "eddy": 1162,
      "ield": 1163,
      "Ġsure": 1164,
      "Ġworry": 1165,
      "Ġmaking": 1166,
      "Ġhill": 1167,
      "stle": 1168,
      "Wow": 1169,
      "Ġmove": 1170,
      "Don": 1171,
      "Ġlight": 1172,
      "Ġsat": 1173,
      "Ġcold": 1174,
      "Ġbehind": 1175,
      "Ġmorning": 1176,
      "Ġworked": 1177,
      "Ġpaper": 1178,
      "Ġright": 1179,
      "Then": 1180,
      "Ġair": 1181,
      "Ġgreat": 1182,
      "Ġbecame": 1183,
      "Ġdri": 1184,
      "Ġfire": 1185,
      "Ġslow": 1186,
      "Ġstrange": 1187,
      "Ġpus": 1188,
      "Ġset": 1189,
      "Ġlove": 1190,
      "oney": 1191,
      "Ġclose": 1192,
      "Ġfull": 1193,
      "rom": 1194,
      "ards": 1195,
      "Ġfrog": 1196,
      "Ġparents": 1197,
      "Ġtast": 1198,
      "Ġbooks": 1199,
      "ila": 1200,
      "th": 1201,
      "Ġhot": 1202,
      "Ġlady": 1203,
      "Ġperf": 1204,
      "Ġyes": 1205,
      "Ġpink": 1206,
      "Ġlikes": 1207,
      "Ġleaves": 1208,
      "Ġhere": 1209,
      "ons": 1210,
      "key": 1211,
      "Ġmet": 1212,
      "Ġdir": 1213,
      "Ġsleep": 1214,
      "Ġthanked": 1215,
      "ĠEm": 1216,
      "Ġdin": 1217,
      "Ġbeach": 1218,
      "Ġmagic": 1219,
      "Ġhimself": 1220,
      "Ġsurprise": 1221,
      "av": 1222,
      "ĠDaisy": 1223,
      "Ġstar": 1224,
      "Ġdoing": 1225,
      "ud": 1226,
      "Ġfloor": 1227,
      "Ġ-": 1228,
      "memb": 1229,
      "oy": 1230,
      "Ġhole": 1231,
      "Ġthing": 1232,
      "Ġbaby": 1233,
      "ĠThere": 1234,
      "Ġtable": 1235,
      "aybe": 1236,
      "Ġate": 1237,
      "inally": 1238,
      "\".": 1239,
      "Ġhun": 1240,
      "Ġmus": 1241,
      "ich": 1242,
      "Ġwhite": 1243,
      "Ġwoods": 1244,
      "Ġheld": 1245,
      "iss": 1246,
      "Ġprince": 1247,
      "Ġnodded": 1248,
      "Ġcreat": 1249,
      "Ġrememb": 1250,
      "Ġdelic": 1251,
      "umb": 1252,
      "Ġdaddy": 1253,
      "Ġcla": 1254,
      "Ġdro": 1255,
      "Ġsnow": 1256,
      "Ġam": 1257,
      "room": 1258,
      "Ġread": 1259,
      "Ġkids": 1260,
      "ang": 1261,
      "irrel": 1262,
      "Ġlost": 1263,
      "Ġcastle": 1264,
      "Ġfix": 1265,
      "Ġbeen": 1266,
      "Ġfilled": 1267,
      "Ġpoin": 1268,
      "Ġgetting": 1269,
      "Ġfriendly": 1270,
      "ĠBilly": 1271,
      "joy": 1272,
      "Ġhold": 1273,
      "ren": 1274,
      "Ġhelped": 1275,
      "Ġcount": 1276,
      "Ġus": 1277,
      "Ġhid": 1278,
      "ĠN": 1279,
      "Ġsurprised": 1280,
      "Ġsear": 1281,
      "Ġsquirrel": 1282,
      "Jack": 1283,
      "ph": 1284,
      "ĠAfter": 1285,
      "aught": 1286,
      "Ġstop": 1287,
      "Ġfur": 1288,
      "Ġpre": 1289,
      "ĠLet": 1290,
      "Ġenjoy": 1291,
      "Ġice": 1292,
      "Ġtell": 1293,
      "Ġpictures": 1294,
      "Ġfield": 1295,
      "icy": 1296,
      "Sam": 1297,
      "Ġrest": 1298,
      "At": 1299,
      "oom": 1300,
      "ĠK": 1301,
      "Ġpuppy": 1302,
      "Ġarm": 1303,
      "eter": 1304,
      "Ġspark": 1305,
      "ation": 1306,
      "ask": 1307,
      "Ġsong": 1308,
      "Ġbeing": 1309,
      "Ġclimbed": 1310,
      "Ġroll": 1311,
      "Ġrealized": 1312,
      "Ġmight": 1313,
      "ken": 1314,
      "Ġcand": 1315,
      "Ġmar": 1316,
      "Ġsail": 1317,
      "Ġlooks": 1318,
      "Ġhear": 1319,
      "ama": 1320,
      "Ġdeep": 1321,
      "ssed": 1322,
      "Ġmess": 1323,
      "pping": 1324,
      "ner": 1325,
      "red": 1326,
      "Ġchildren": 1327,
      "Ġvis": 1328,
      "Ġhungry": 1329,
      "Ġmother": 1330,
      "rot": 1331,
      "Ġscary": 1332,
      "Ġfinished": 1333,
      "Ġclot": 1334,
      "Ġlion": 1335,
      "Ġfollowed": 1336,
      "His": 1337,
      "Ġbrought": 1338,
      "Ġtwins": 1339,
      "Ġacross": 1340,
      "Ġwrong": 1341,
      "Ġclothes": 1342,
      "Ġspl": 1343,
      "ling": 1344,
      "Ġride": 1345,
      "Ġhide": 1346,
      "Ġflying": 1347,
      "ĠAmy": 1348,
      "Ġtrying": 1349,
      "Ġwants": 1350,
      "ash": 1351,
      "ix": 1352,
      "Ġdoes": 1353,
      "asure": 1354,
      "Ġlake": 1355,
      "uffy": 1356,
      "Ġanything": 1357,
      "ĠTommy": 1358,
      "Ġwall": 1359,
      "Ġshap": 1360,
      "Ġcloud": 1361,
      "Ġpaint": 1362,
      "Ġjoin": 1363,
      "ĠAll": 1364,
      "We": 1365,
      "avy": 1366,
      "Ġrace": 1367,
      "Ġeverywhere": 1368,
      "Ġriver": 1369,
      "oup": 1370,
      "Ġplease": 1371,
      "der": 1372,
      "Ġplan": 1373,
      "Ġpat": 1374,
      "Ġdinner": 1375,
      "Ġlaugh": 1376,
      "Ġcolorful": 1377,
      "amp": 1378,
      "Ġcont": 1379,
      "Ġdance": 1380,
      "Ġwasn": 1381,
      "Ġgi": 1382,
      "Ġvisit": 1383,
      "Ġbran": 1384,
      "Ġpen": 1385,
      "Ġpet": 1386,
      "gon": 1387,
      "Ġdelicious": 1388,
      "med": 1389,
      "Ġfair": 1390,
      "Ġwet": 1391,
      "Ġever": 1392,
      "Ġmean": 1393,
      "sp": 1394,
      "Ġherself": 1395,
      "Ġimport": 1396,
      "ming": 1397,
      "Ġtight": 1398,
      "ames": 1399,
      "Ġdone": 1400,
      "Ġtowards": 1401,
      "Ġimportant": 1402,
      "ĠCan": 1403,
      "Ġtown": 1404,
      "reed": 1405,
      "Ġfew": 1406,
      "ance": 1407,
      "Ġeverything": 1408,
      "Ġmusic": 1409,
      "Ġmix": 1410,
      "em": 1411,
      "Ġliving": 1412,
      "Ġtalk": 1413,
      "ĠJim": 1414,
      "Ġmat": 1415,
      "Ġfox": 1416,
      "Ġcomp": 1417,
      "Ġblack": 1418,
      "Ġokay": 1419,
      "Ġperfect": 1420,
      "Ġreach": 1421,
      "Hi": 1422,
      "orry": 1423,
      "ugg": 1424,
      "Ġve": 1425,
      "Ġhop": 1426,
      "Ġwaited": 1427,
      "chool": 1428,
      "Ġour": 1429,
      "ident": 1430,
      "Ġheavy": 1431,
      "Ġgrandma": 1432,
      "oring": 1433,
      "Ġbrown": 1434,
      "Ġsees": 1435,
      "Ġdolls": 1436,
      "Ġstepped": 1437,
      "Ġparty": 1438,
      "Why": 1439,
      "Ġsuddenly": 1440,
      "ctor": 1441,
      "Ġside": 1442,
      "Ġbroken": 1443,
      "Max": 1444,
      "zz": 1445,
      "Ġamazed": 1446,
      "wl": 1447,
      "Ġschool": 1448,
      "Ġacc": 1449,
      "Ġstre": 1450,
      "Ġfinally": 1451,
      "ĠJen": 1452,
      "Ġturned": 1453,
      "Ġcup": 1454,
      "cle": 1455,
      "Ġwaved": 1456,
      "Ġgrow": 1457,
      "Ġbike": 1458,
      "Ġsomeone": 1459,
      "Ġowner": 1460,
      "Ġremembered": 1461,
      "Ġdanc": 1462,
      "Ġbot": 1463,
      "Ġbreak": 1464,
      "Ġbowl": 1465,
      "Ġmonkey": 1466,
      "ued": 1467,
      "Ġele": 1468,
      "ast": 1469,
      "Ġaccident": 1470,
      "Ġballoon": 1471,
      "Ġplant": 1472,
      "ere": 1473,
      "Ġanother": 1474,
      "Ġbar": 1475,
      "ated": 1476,
      "Ġyard": 1477,
      "hank": 1478,
      "Ġdream": 1479,
      "ises": 1480,
      "Ġenough": 1481,
      "os": 1482,
      "Ġpot": 1483,
      "Ġtail": 1484,
      "Ġcream": 1485,
      "iny": 1486,
      "Ġslowly": 1487,
      "gs": 1488,
      "ol": 1489,
      "Ġ3": 1490,
      "yard": 1491,
      "Ġcarrot": 1492,
      "Ġprincess": 1493,
      "man": 1494,
      "Ġunderst": 1495,
      "Ġfaster": 1496,
      "Ġhig": 1497,
      "ub": 1498,
      "Ġbackyard": 1499,
      "ister": 1500,
      "Ġland": 1501,
      "cket": 1502,
      "sw": 1503,
      "ained": 1504,
      "Ġju": 1505,
      "Ġpieces": 1506,
      "Ġsorry": 1507,
      "igg": 1508,
      "ower": 1509,
      "ze": 1510,
      "Ġansw": 1511,
      "Ġpulled": 1512,
      "Ġfall": 1513,
      "Ġgen": 1514,
      "Ġfarmer": 1515,
      "Ġyoung": 1516,
      "ĠGra": 1517,
      "Oh": 1518,
      "orm": 1519,
      "ĠWhat": 1520,
      "ries": 1521,
      "Ġnearby": 1522,
      "ĠTo": 1523,
      "Ġbigger": 1524,
      "Ġforg": 1525,
      "ĠJill": 1526,
      "eared": 1527,
      "Ġleft": 1528,
      "Ġra": 1529,
      "Ġagreed": 1530,
      "Ġblank": 1531,
      "Ġmoney": 1532,
      "more": 1533,
      "Ġanymore": 1534,
      "Ġalong": 1535,
      "ucky": 1536,
      "itten": 1537,
      "ĠFrom": 1538,
      "rew": 1539,
      "Ġwouldn": 1540,
      "Ġworried": 1541,
      "ĠMolly": 1542,
      "Ġmoment": 1543,
      "Ġsister": 1544,
      "Ġstuck": 1545,
      "Ġaccidentally": 1546,
      "Ġcandy": 1547,
      "pe": 1548,
      "Ġamazing": 1549,
      "unch": 1550,
      "Ġfruit": 1551,
      "ined": 1552,
      "Ġblanket": 1553,
      "Ġbee": 1554,
      "Ġteddy": 1555,
      "iet": 1556,
      "thy": 1557,
      "ds": 1558,
      "ey": 1559,
      "Ġmust": 1560,
      "Ġpol": 1561,
      "Ġsea": 1562,
      "ubb": 1563,
      "Ġsunny": 1564,
      "Ġstreet": 1565,
      "ĠMary": 1566,
      "ĠDaddy": 1567,
      "Thank": 1568,
      "Ġtrain": 1569,
      "Ġhigher": 1570,
      "ire": 1571,
      "Ġlearned": 1572,
      "Ġel": 1573,
      "row": 1574,
      "ber": 1575,
      "Ġnap": 1576,
      "ĠFl": 1577,
      "Ġquiet": 1578,
      "Ġelse": 1579,
      "sc": 1580,
      "ence": 1581,
      "Ġtiny": 1582,
      "Ġdirty": 1583,
      "set": 1584,
      "Ġcried": 1585,
      "Ġswings": 1586,
      "Ġje": 1587,
      "Ġbuck": 1588,
      "ĠDo": 1589,
      "ĠLila": 1590,
      "ipped": 1591,
      "'ll": 1592,
      "ĠInside": 1593,
      "Ġchair": 1594,
      "Ġnoises": 1595,
      "Ġstayed": 1596,
      "Ġsec": 1597,
      "asket": 1598,
      "Ġcorn": 1599,
      "Ġbasket": 1600,
      "Ġmonster": 1601,
      "Ġstand": 1602,
      "Ġsign": 1603,
      "ĠThat": 1604,
      "Ġspr": 1605,
      "Ġrocks": 1606,
      "Ġgames": 1607,
      "Ġwin": 1608,
      "This": 1609,
      "Ġround": 1610,
      "Ġwings": 1611,
      "Ġtoday": 1612,
      "ee": 1613,
      "Ġbelie": 1614,
      "cy": 1615,
      "Ġshoes": 1616,
      "Ġneigh": 1617,
      "Ġtreat": 1618,
      "Later": 1619,
      "Ġneighb": 1620,
      "fort": 1621,
      "ĊĊ": 1622,
      "Ġalone": 1623,
      "Ġatt": 1624,
      "iting": 1625,
      "Ġcookies": 1626,
      "Sure": 1627,
      "ĠEmma": 1628,
      "ĠThis": 1629,
      "Ġgu": 1630,
      "vel": 1631,
      "Ġeating": 1632,
      "Ġhappen": 1633,
      "Ġasks": 1634,
      "Ġsitting": 1635,
      "Ġbath": 1636,
      "ord": 1637,
      "Ġsnack": 1638,
      "phant": 1639,
      "Ġsinging": 1640,
      "Ġcray": 1641,
      "Ġshop": 1642,
      "Ġpro": 1643,
      "Ġmagical": 1644,
      "oun": 1645,
      "Ġshapes": 1646,
      "ored": 1647,
      "Ġseemed": 1648,
      "ose": 1649,
      "outh": 1650,
      "Ġear": 1651,
      "ountain": 1652,
      "Ġpers": 1653,
      "Ġbutt": 1654,
      "Ġgone": 1655,
      "Ġcow": 1656,
      "Ġprom": 1657,
      "Ġbroke": 1658,
      "Ġelephant": 1659,
      "Ġdoctor": 1660,
      "Ġsometimes": 1661,
      "Ġwhis": 1662,
      "Ġexplained": 1663,
      "Ġfight": 1664,
      "Ġdragon": 1665,
      "let": 1666,
      "Ġrel": 1667,
      "Ġorange": 1668,
      "ually": 1669,
      "Ġsmo": 1670,
      "ract": 1671,
      "Ġcolour": 1672,
      "Ġbite": 1673,
      "Ġswimming": 1674,
      "Ġbusy": 1675,
      "Ġenjoyed": 1676,
      "weet": 1677,
      "Ġdrove": 1678,
      "Ġcarry": 1679,
      "Ġunderstand": 1680,
      "ittens": 1681,
      "Do": 1682,
      "ors": 1683,
      "Ġspotted": 1684,
      "Ġtower": 1685,
      "Ġpig": 1686,
      "ĠAnd": 1687,
      "Ġdist": 1688,
      "Ġtreasure": 1689,
      "Finally": 1690,
      "Ġcontin": 1691,
      "Ġhuge": 1692,
      "Ġsilly": 1693,
      "Ġinv": 1694,
      "ush": 1695,
      "Ġmost": 1696,
      "Ġlistened": 1697,
      "Ġmoved": 1698,
      "Ġbucket": 1699,
      "Ġpurp": 1700,
      "Ġforgot": 1701,
      "Ġwoke": 1702,
      "lect": 1703,
      "Ġapple": 1704,
      "Ġwondered": 1705,
      "Ġswam": 1706,
      "Ġbelieve": 1707,
      "ased": 1708,
      "Ġwhe": 1709,
      "Ġpocket": 1710,
      "Ġpast": 1711,
      "Ġmakes": 1712,
      "Ġupset": 1713,
      "fused": 1714,
      "OK": 1715,
      "Ġjar": 1716,
      "Ġpurple": 1717,
      "Ġjoy": 1718,
      "aughter": 1719,
      "Ġsame": 1720,
      "sy": 1721,
      "Ġteac": 1722,
      "Ġowl": 1723,
      "ung": 1724,
      "Ġmark": 1725,
      "mer": 1726,
      "llo": 1727,
      "ney": 1728,
      "Ġcontinued": 1729,
      "Ġdanger": 1730,
      "board": 1731,
      "Ġstars": 1732,
      "Ġleave": 1733,
      "Ġmouth": 1734,
      "adow": 1735,
      "to": 1736,
      "Ġben": 1737,
      "Ġjour": 1738,
      "Ġshining": 1739,
      "ass": 1740,
      "ĠMr": 1741,
      "Ġteacher": 1742,
      "Ġmin": 1743,
      "Ġcir": 1744,
      "Ġpushed": 1745,
      "ĠSammy": 1746,
      "hile": 1747,
      "Ġgather": 1748,
      "Ġable": 1749,
      "ment": 1750,
      "Ġboun": 1751,
      "Ġbranch": 1752,
      "Ġshar": 1753,
      "Ġbottle": 1754,
      "Ġnest": 1755,
      "Ġdaughter": 1756,
      "Ġbat": 1757,
      "Ġsang": 1758,
      "shine": 1759,
      "br": 1760,
      "Ġhappily": 1761,
      "erest": 1762,
      "ost": 1763,
      "Ġinterest": 1764,
      "Ġsearched": 1765,
      "Ġdrink": 1766,
      "Ġclosed": 1767,
      "Ġant": 1768,
      "Ġmail": 1769,
      "Maybe": 1770,
      "Ġking": 1771,
      "Ġcollect": 1772,
      "Ġgif": 1773,
      "Ġsunshine": 1774,
      "Ġcrying": 1775,
      "omet": 1776,
      "Ġonto": 1777,
      "ever": 1778,
      "Ġfence": 1779,
      "althy": 1780,
      "ches": 1781,
      "Ġappeared": 1782,
      "Mia": 1783,
      "read": 1784,
      "bye": 1785,
      "ail": 1786,
      "Ġwide": 1787,
      "Ġcoat": 1788,
      "Ġlunch": 1789,
      "Ġob": 1790,
      "Ġwise": 1791,
      "Ġcute": 1792,
      "Ġfairy": 1793,
      "Ġexploring": 1794,
      "irt": 1795,
      "ĠTweet": 1796,
      "Ġdry": 1797,
      "Ġdes": 1798,
      "Just": 1799,
      "Ġbush": 1800,
      "pper": 1801,
      "less": 1802,
      "Ġwords": 1803,
      "Ġthrow": 1804,
      "Ġthrew": 1805,
      "Ġclapped": 1806,
      "Ġspin": 1807,
      "Ġwon": 1808,
      "Ġroad": 1809,
      "Ġgoodbye": 1810,
      "Ġph": 1811,
      "Ġfit": 1812,
      "ĠFluffy": 1813,
      "Ġspoon": 1814,
      "Ġfan": 1815,
      "Ġshell": 1816,
      "Ġhello": 1817,
      "ek": 1818,
      "Ġsecret": 1819,
      "app": 1820,
      "ens": 1821,
      "ball": 1822,
      "Ġpointed": 1823,
      "andy": 1824,
      "Ġshook": 1825,
      "ont": 1826,
      "Ġexciting": 1827,
      "Ġbought": 1828,
      "Ġsu": 1829,
      "Ġeg": 1830,
      "onely": 1831,
      "Ġnose": 1832,
      "Ġlonely": 1833,
      "ventually": 1834,
      "Ġkey": 1835,
      "Ġdangerous": 1836,
      "Ġneck": 1837,
      "Ġpudd": 1838,
      "ĠMittens": 1839,
      "Ġcave": 1840,
      "Ġinteresting": 1841,
      "ometimes": 1842,
      "Bob": 1843,
      "Ġletter": 1844,
      "Ġfront": 1845,
      "up": 1846,
      "Ġruns": 1847,
      "Ġarms": 1848,
      "Ġpile": 1849,
      "vered": 1850,
      "uched": 1851,
      "Ġtouched": 1852,
      "Ġgentle": 1853,
      "thday": 1854,
      "arge": 1855,
      "'re": 1856,
      "ĠFinally": 1857,
      "ead": 1858,
      "idge": 1859,
      "Ġmine": 1860,
      "Ġwhich": 1861,
      "ĠEverywhere": 1862,
      "Ġbench": 1863,
      "Ġdisapp": 1864,
      "stead": 1865,
      "Ġbring": 1866,
      "Ġwonderful": 1867,
      "Ġent": 1868,
      "cean": 1869,
      "Ġocean": 1870,
      "Ġlift": 1871,
      "Ġvill": 1872,
      "Ġrec": 1873,
      "Ġclouds": 1874,
      "Ġcaught": 1875,
      "Ġhit": 1876,
      "Ġjob": 1877,
      "ĠEll": 1878,
      "Ġzoom": 1879,
      "Ġbirthday": 1880,
      "ions": 1881,
      "Ġpath": 1882,
      "Every": 1883,
      "ese": 1884,
      "Ġeag": 1885,
      "Mum": 1886,
      "Ġsmelled": 1887,
      "Ġthinks": 1888,
      "ible": 1889,
      "Ġtur": 1890,
      "ian": 1891,
      "Ġsearch": 1892,
      "Ġlarge": 1893,
      "Ġapples": 1894,
      "Ġcrayons": 1895,
      "Molly": 1896,
      "Ġnothing": 1897,
      "Jim": 1898,
      "Ġsoup": 1899,
      "Ġtrip": 1900,
      "col": 1901,
      "Ġfeather": 1902,
      "Ġsharp": 1903,
      "ĠMama": 1904,
      "Tommy": 1905,
      "Ġperson": 1906,
      "Ġrem": 1907,
      "Ġcreature": 1908,
      "Ġcorner": 1909,
      "Ġmud": 1910,
      "Ġstories": 1911,
      "Ġsick": 1912,
      "Ġrolled": 1913,
      "Ġfree": 1914,
      "ove": 1915,
      "ity": 1916,
      "Lila": 1917,
      "Ġmiss": 1918,
      "Ġcour": 1919,
      "Ġmach": 1920,
      "Ġjuice": 1921,
      "ier": 1922,
      "Ġwell": 1923,
      "ape": 1924,
      "Ġquest": 1925,
      "unt": 1926,
      "oop": 1927,
      "Ġjourney": 1928,
      "Ġwra": 1929,
      "Ġwearing": 1930,
      "bow": 1931,
      "Ġholding": 1932,
      "Ġhor": 1933,
      "fortable": 1934,
      "Ġdirt": 1935,
      "eth": 1936,
      "Ġturns": 1937,
      "Ġspo": 1938,
      "Ġpres": 1939,
      "mp": 1940,
      "ĠSometimes": 1941,
      "Ġgiant": 1942,
      "ĠJimmy": 1943,
      "itch": 1944,
      "Ġcheese": 1945,
      "From": 1946,
      "erly": 1947,
      "Ġdriver": 1948,
      "Ġneighbor": 1949,
      "Ġmil": 1950,
      "Ġdays": 1951,
      "Ġba": 1952,
      "een": 1953,
      "els": 1954,
      "Ġstory": 1955,
      "Ġkite": 1956,
      "Ġanyone": 1957,
      "Ġpop": 1958,
      "Ġbelong": 1959,
      "Ġrainbow": 1960,
      "Ġpour": 1961,
      "ocked": 1962,
      "Ġcourse": 1963,
      "Ġhar": 1964,
      "Ġblew": 1965,
      "Ġpack": 1966,
      "Ġsmart": 1967,
      "ĠEmily": 1968,
      "Ġpower": 1969,
      "ĠSoon": 1970,
      "Ġpar": 1971,
      "bby": 1972,
      "Ġorgan": 1973,
      "Ġaf": 1974,
      "Ġcozy": 1975,
      "Ġbugs": 1976,
      "Ġsandw": 1977,
      "Ġadventures": 1978,
      "eb": 1979,
      "Ġstorm": 1980,
      "Ġmountain": 1981,
      "Ġducks": 1982,
      "Ġfurry": 1983,
      "Ġnumb": 1984,
      "Ġdropped": 1985,
      "Ġpresent": 1986,
      "Ġplane": 1987,
      "Ġbuilding": 1988,
      "Ġsack": 1989,
      "ular": 1990,
      "Ġnaught": 1991,
      "aur": 1992,
      "Ġgrab": 1993,
      "Ġwatching": 1994,
      "Ġnaughty": 1995,
      "Ġseat": 1996,
      "Lucy": 1997,
      "Ġinc": 1998,
      "Ġplaces": 1999,
      "cer": 2000,
      "Ġtrou": 2001,
      "Ġwore": 2002,
      "Ġcho": 2003,
      "Okay": 2004,
      "ond": 2005,
      "Ġfeet": 2006,
      "Ġstir": 2007,
      "Ġpatient": 2008,
      "Ġdrive": 2009,
      "Ġpan": 2010,
      "ale": 2011,
      "Ġbread": 2012,
      "Ġlay": 2013,
      "Ġtaking": 2014,
      "raid": 2015,
      "Ġpretended": 2016,
      "ĠOn": 2017,
      "Ġafraid": 2018,
      "Ġpract": 2019,
      "Ġmis": 2020,
      "Ġchick": 2021,
      "Ġhorse": 2022,
      "Ġfing": 2023,
      "Ġvillage": 2024,
      "Ġspid": 2025,
      "Ġcheered": 2026,
      "Ġtasty": 2027,
      "Ġshr": 2028,
      "Ġjung": 2029,
      "Ġsounds": 2030,
      "nic": 2031,
      "Ġheart": 2032,
      "Ġjungle": 2033,
      "Ġhoney": 2034,
      "Ġpicnic": 2035,
      "cks": 2036,
      "Ġgigg": 2037,
      "ize": 2038,
      "Ġrope": 2039,
      "Ġthank": 2040,
      "Ġsort": 2041,
      "Ġthin": 2042,
      "ĠGrandma": 2043,
      "In": 2044,
      "oman": 2045,
      "Ġwild": 2046,
      "Ġwoman": 2047,
      "Ġsmooth": 2048,
      "Come": 2049,
      "Ġmachine": 2050,
      "Ġcou": 2051,
      "Ġlaughing": 2052,
      "Ġcart": 2053,
      "la": 2054,
      "Ġsongs": 2055,
      "Ġpromised": 2056,
      "Ġpaw": 2057,
      "Ġstret": 2058,
      "ĠCh": 2059,
      "Ġbubb": 2060,
      "Ġexp": 2061,
      "ĠJake": 2062,
      "Ġmeet": 2063,
      "Ġimag": 2064,
      "Ġmilk": 2065,
      "Ġshy": 2066,
      "dle": 2067,
      "Ġtun": 2068,
      "Ġpool": 2069,
      "unk": 2070,
      "Ġsparkly": 2071,
      "lex": 2072,
      "Ġbreat": 2073,
      "ones": 2074,
      "Ġfold": 2075,
      "Ġzoo": 2076,
      "Ġadm": 2077,
      "Ġwished": 2078,
      "Ġmyster": 2079,
      "Ġdisco": 2080,
      "pa": 2081,
      "Ġgray": 2082,
      "Ġglad": 2083,
      "uce": 2084,
      "Ġspread": 2085,
      "oph": 2086,
      "Ġwrite": 2087,
      "ert": 2088,
      "Ġpill": 2089,
      "Ġsnake": 2090,
      "isa": 2091,
      "Ġlovely": 2092,
      "Ġbark": 2093,
      "aced": 2094,
      "Ġpuddle": 2095,
      "Ġeas": 2096,
      "Ġshirt": 2097,
      "gged": 2098,
      "ĠO": 2099,
      "Ġdanced": 2100,
      "orrow": 2101,
      "Ġleaf": 2102,
      "Ġgroup": 2103,
      "ĠJenny": 2104,
      "Ġconfused": 2105,
      "ĠMaybe": 2106,
      "Ġbutton": 2107,
      "ently": 2108,
      "alm": 2109,
      "Ġwithout": 2110,
      "Ġdi": 2111,
      "blem": 2112,
      "oose": 2113,
      "Ġtalked": 2114,
      "Ġproblem": 2115,
      "Ġtool": 2116,
      "Ġact": 2117,
      "Ġpass": 2118,
      "Ġknocked": 2119,
      "Ġcarrots": 2120,
      "Ġsplas": 2121,
      "getable": 2122,
      "Ġvegetable": 2123,
      "ĠAnn": 2124,
      "Ġpeace": 2125,
      "Ġtasted": 2126,
      "Ġlad": 2127,
      "Ġce": 2128,
      "Ġcard": 2129,
      "Ġjumping": 2130,
      "Ġfoot": 2131,
      "ato": 2132,
      "Ġstep": 2133,
      "ator": 2134,
      "ecially": 2135,
      "Ġothers": 2136,
      "Soon": 2137,
      "Ġsplash": 2138,
      "Ġmeadow": 2139,
      "specially": 2140,
      "Ġpuzz": 2141,
      "ress": 2142,
      "Ġgift": 2143,
      "itty": 2144,
      "Ġespecially": 2145,
      "Ġser": 2146,
      "als": 2147,
      "Ġpush": 2148,
      "Ġanswer": 2149,
      "Ġshared": 2150,
      "Ġspider": 2151,
      "Ġsur": 2152,
      "Ġbell": 2153,
      "Ġworm": 2154,
      "Ġgrand": 2155,
      "lice": 2156,
      "Ġslid": 2157,
      "iddle": 2158,
      "Ġsticks": 2159,
      "ife": 2160,
      "epend": 2161,
      "ho": 2162,
      "Ġinstead": 2163,
      "ÅĵI": 2164,
      "Ġsuch": 2165,
      "Ġoven": 2166,
      "Mama": 2167,
      "ope": 2168,
      "Ġhopping": 2169,
      "fish": 2170,
      "Ġcrab": 2171,
      "izz": 2172,
      "Ġseek": 2173,
      "Ġspray": 2174,
      "Ġladder": 2175,
      "My": 2176,
      "Be": 2177,
      "lc": 2178,
      "Ġpacked": 2179,
      "Ġstra": 2180,
      "Ġlegs": 2181,
      "iger": 2182,
      "Ġmiddle": 2183,
      "Ġcraw": 2184,
      "box": 2185,
      "Ġlive": 2186,
      "Ġcheer": 2187,
      "Ġbedroom": 2188,
      "Ġtalking": 2189,
      "Ġband": 2190,
      "Ġkitten": 2191,
      "Ġgrew": 2192,
      "vous": 2193,
      "Ġdecor": 2194,
      "Ġclever": 2195,
      "ustr": 2196,
      "Ġstood": 2197,
      "Ġscream": 2198,
      "Ġcoo": 2199,
      "Ġemb": 2200,
      "Ġphone": 2201,
      "Ġtwirl": 2202,
      "Ġban": 2203,
      "Ġdrew": 2204,
      "ground": 2205,
      "Ġwish": 2206,
      "Ġcloth": 2207,
      "ĠTeddy": 2208,
      "elly": 2209,
      "Ġru": 2210,
      "Ġcross": 2211,
      "owed": 2212,
      "Ġwhole": 2213,
      "Ġteeth": 2214,
      "Ġnet": 2215,
      "Ġfrustr": 2216,
      "Ġgently": 2217,
      "Ġsnowman": 2218,
      "Ġgathered": 2219,
      "Ġsal": 2220,
      "ours": 2221,
      "Ġstanding": 2222,
      "Ġdeter": 2223,
      "arra": 2224,
      "Ġhum": 2225,
      "Ġembarra": 2226,
      "ying": 2227,
      "erry": 2228,
      "Ġmed": 2229,
      "Ġsheep": 2230,
      "Ġdeterm": 2231,
      "Ġminut": 2232,
      "umpy": 2233,
      "Ġstring": 2234,
      "Hey": 2235,
      "Ġbarked": 2236,
      "most": 2237,
      "Ġscar": 2238,
      "Ġner": 2239,
      "ony": 2240,
      "ult": 2241,
      "Ġclear": 2242,
      "Ġfrustrated": 2243,
      "Please": 2244,
      "Ġfancy": 2245,
      "Ġign": 2246,
      "Ġline": 2247,
      "Ġplate": 2248,
      "Ġwander": 2249,
      "Ġnervous": 2250,
      "Ġalmost": 2251,
      "Ġclass": 2252,
      "Ġchased": 2253,
      "ĠToday": 2254,
      "old": 2255,
      "Ġshelf": 2256,
      "Ġtid": 2257,
      "Ġstone": 2258,
      "Ġbanan": 2259,
      "ird": 2260,
      "Ġwhistle": 2261,
      "obby": 2262,
      "Ġblow": 2263,
      "ĠNow": 2264,
      "Ġmessy": 2265,
      "cles": 2266,
      "umbled": 2267,
      "Ġsuc": 2268,
      "Ġhiding": 2269,
      "Ġgrate": 2270,
      "Ġhealthy": 2271,
      "Ġplants": 2272,
      "Ġseed": 2273,
      "airs": 2274,
      "Ġjoke": 2275,
      "Ġsupp": 2276,
      "Ġputs": 2277,
      "Ġanswered": 2278,
      "Ġrob": 2279,
      "Ġsucce": 2280,
      "Ġemp": 2281,
      "Ġdetermined": 2282,
      "ĠPeter": 2283,
      "Ġempty": 2284,
      "Where": 2285,
      "Ġspe": 2286,
      "Ġgrateful": 2287,
      "ina": 2288,
      "To": 2289,
      "Ġmummy": 2290,
      "Ġship": 2291,
      "Ġ'": 2292,
      "Ġrod": 2293,
      "Ġkick": 2294,
      "usie": 2295,
      "Ġmeant": 2296,
      "ual": 2297,
      "ĠMum": 2298,
      "Ġthough": 2299,
      "Ġring": 2300,
      "Ġembarrassed": 2301,
      "Ġtom": 2302,
      "ĠWith": 2303,
      "ned": 2304,
      "Ġjog": 2305,
      "ĠSt": 2306,
      "Ġchocol": 2307,
      "ĠZ": 2308,
      "Ġnut": 2309,
      "Ġspicy": 2310,
      "Ġtest": 2311,
      "lue": 2312,
      "Ġcur": 2313,
      "Ġteach": 2314,
      "den": 2315,
      "St": 2316,
      "Ġlate": 2317,
      "Ġfluffy": 2318,
      "Ġcouch": 2319,
      "Ġbake": 2320,
      "Ġtreats": 2321,
      "ensive": 2322,
      "Ġfeed": 2323,
      "Ġdistance": 2324,
      "Ġfig": 2325,
      "Ġmot": 2326,
      "Ġlonger": 2327,
      "Ġtaste": 2328,
      "Of": 2329,
      "Ġexpensive": 2330,
      "Ġrobot": 2331,
      "ĠTV": 2332,
      "Ġfil": 2333,
      "Ġroar": 2334,
      "Jane": 2335,
      "Ġhang": 2336,
      "ĠLisa": 2337,
      "Ġvegetables": 2338,
      "body": 2339,
      "Ġdig": 2340,
      "Ġfeathers": 2341,
      "Ġbreath": 2342,
      "gy": 2343,
      "Ġtea": 2344,
      "Ġcolourful": 2345,
      "Ġbal": 2346,
      "Ġcoin": 2347,
      "Ġhidden": 2348,
      "Ġexcite": 2349,
      "Ġvan": 2350,
      "Ġcomes": 2351,
      "kin": 2352,
      "Dad": 2353,
      "Sarah": 2354,
      "Ġjelly": 2355,
      "pill": 2356,
      "Ġcloset": 2357,
      "ĠKitty": 2358,
      "Ġcarried": 2359,
      "Ġprot": 2360,
      "Ġbored": 2361,
      "Ġdeer": 2362,
      "There": 2363,
      "pillar": 2364,
      "Ġcater": 2365,
      "Ġpoor": 2366,
      "Ġmoon": 2367,
      "Ġsnacks": 2368,
      "urse": 2369,
      "Ġsmiling": 2370,
      "Ġknee": 2371,
      "Ġmatch": 2372,
      "Ġeager": 2373,
      "Ġgun": 2374,
      "Ġrocket": 2375,
      "Ġchocolate": 2376,
      "ĠSome": 2377,
      "Ġdelight": 2378,
      "Ġsleepy": 2379,
      "Ġbranches": 2380,
      "Ġcaterpillar": 2381,
      "Ġhours": 2382,
      "Ġwave": 2383,
      "Ġlit": 2384,
      "Ġshore": 2385,
      "aking": 2386,
      "Ġflag": 2387,
      "sist": 2388,
      "Ġwaves": 2389,
      "Ġshake": 2390,
      "Ġtidy": 2391,
      "?\".": 2392,
      "Ġexam": 2393,
      "Jimmy": 2394,
      "af": 2395,
      "Ġgoes": 2396,
      "Ġfavour": 2397,
      "Ġpowerful": 2398,
      "arl": 2399,
      "Ġsandwich": 2400,
      "Ġmysterious": 2401,
      "Ġgold": 2402,
      "ella": 2403,
      "Ġjew": 2404,
      "Ġsug": 2405,
      "Ġsold": 2406,
      "Ġlanded": 2407,
      "Ġexcitement": 2408,
      "Ġhelping": 2409,
      "Ġcalm": 2410,
      "Ġpin": 2411,
      "Ġfavourite": 2412,
      "ĠJohnny": 2413,
      "Ġsugar": 2414,
      "Ġthick": 2415,
      "ĠJust": 2416,
      "Ġtent": 2417,
      "ots": 2418,
      "Ġflut": 2419,
      "Ġmeasure": 2420,
      "Ġfruits": 2421,
      "Ġbrush": 2422,
      "ward": 2423,
      "Ġtick": 2424,
      "Ġmad": 2425,
      "gly": 2426,
      "Ġeventually": 2427,
      "irp": 2428,
      "Ġfear": 2429,
      "Ġbrothers": 2430,
      "Ġmarch": 2431,
      "Ġknight": 2432,
      "ete": 2433,
      "Ġugly": 2434,
      "Ġhappening": 2435,
      "Ġstuff": 2436,
      "Ġeggs": 2437,
      "Ġpillow": 2438,
      "Ġqueen": 2439,
      "Ġstumbled": 2440,
      "Ġyelled": 2441,
      "era": 2442,
      "Ġeld": 2443,
      "Ġstones": 2444,
      "Ġpeaceful": 2445,
      "Ġap": 2446,
      "Billy": 2447,
      "Ġrad": 2448,
      "izzy": 2449,
      "Ġvase": 2450,
      "Ġjuicy": 2451,
      "ipe": 2452,
      "ĠBlue": 2453,
      "Ġwash": 2454,
      "Ġplayground": 2455,
      "ouses": 2456,
      "emo": 2457,
      "Ġlying": 2458,
      "ote": 2459,
      "Ġlazy": 2460,
      "ested": 2461,
      "izza": 2462,
      "Ġboss": 2463,
      "Ġchest": 2464,
      "Ġav": 2465,
      "Ġmarket": 2466,
      "Ġcookie": 2467,
      "ced": 2468,
      "Ġchew": 2469,
      "Ġdancing": 2470,
      "Ġlife": 2471,
      "Ġmoving": 2472,
      "Ġhouses": 2473,
      "Ġgate": 2474,
      "Ġgrumpy": 2475,
      "ĠAt": 2476,
      "iff": 2477,
      "Ġpointing": 2478,
      "Ġlucky": 2479,
      "Ġcri": 2480,
      "Ġlater": 2481,
      "ĠBr": 2482,
      "Ġcrown": 2483,
      "ude": 2484,
      "Ġsailed": 2485,
      "Ġadd": 2486,
      "Ġwaiting": 2487,
      "port": 2488,
      "Ġelderly": 2489,
      "Ġsugg": 2490,
      "Ġsour": 2491,
      "Ġcomfortable": 2492,
      "Ġremember": 2493,
      "Ġscarf": 2494,
      "Ġgar": 2495,
      "Ġwolf": 2496,
      "lebr": 2497,
      "Ġsell": 2498,
      "While": 2499,
      "Ġtries": 2500,
      "Ġpir": 2501,
      "Ġfigure": 2502,
      "Sally": 2503,
      "Ġpizza": 2504,
      "Ġglass": 2505,
      "issors": 2506,
      "Ġcelebr": 2507,
      "Ġbody": 2508,
      "ĠMark": 2509,
      "Ġfat": 2510,
      "Ġsmiles": 2511,
      "Ġval": 2512,
      "uddy": 2513,
      "ushed": 2514,
      "Ġballs": 2515,
      "Ġdrum": 2516,
      "ork": 2517,
      "Ġscissors": 2518,
      "Mummy": 2519,
      "Ġspun": 2520,
      "anger": 2521,
      "light": 2522,
      "fast": 2523,
      "Ġtie": 2524,
      "Ġunus": 2525,
      "lower": 2526,
      "Ġfis": 2527,
      "Ġmixed": 2528,
      "Ġbreakfast": 2529,
      "Ġsmelly": 2530,
      "Ġworking": 2531,
      "Ġmov": 2532,
      "Ġpuzzle": 2533,
      "Ġunusual": 2534,
      "Ġfather": 2535,
      "Sue": 2536,
      "cil": 2537,
      "Ġnoisy": 2538,
      "Ġshoot": 2539,
      "Ġpencil": 2540,
      "Ġmic": 2541,
      "Ġed": 2542,
      "Ġoften": 2543,
      "Ġbirdie": 2544,
      "Ġbridge": 2545,
      "udy": 2546,
      "Ġlock": 2547,
      "lace": 2548,
      "Ġnecklace": 2549,
      "enny": 2550,
      "Ġmotor": 2551,
      "Ġfinish": 2552,
      "Ġtrouble": 2553,
      "pack": 2554,
      "oof": 2555,
      "Ġtakes": 2556,
      "Ġloudly": 2557,
      "ti": 2558,
      "ighed": 2559,
      "aser": 2560,
      "Ġwrote": 2561,
      "Ġmind": 2562,
      "Ġcircles": 2563,
      "Ġeasy": 2564,
      "Ġpassed": 2565,
      "Ġweak": 2566,
      "Ġoffered": 2567,
      "Ġpri": 2568,
      "ĠWhile": 2569,
      "Ġtag": 2570,
      "inted": 2571,
      "Ġsave": 2572,
      "Ġspent": 2573,
      "Ġspace": 2574,
      "Ġexcitedly": 2575,
      "Ġlem": 2576,
      "Sp": 2577,
      "ipp": 2578,
      "Ġhon": 2579,
      "Ġspend": 2580,
      "Ġwalls": 2581,
      "ets": 2582,
      "Jill": 2583,
      "Ġfamous": 2584,
      "Ġborrow": 2585,
      "Ġbrightly": 2586,
      "Ġbald": 2587,
      "Ġgarage": 2588,
      "Ġbone": 2589,
      "ĠLittle": 2590,
      "Ġboard": 2591,
      "work": 2592,
      "Ġquestions": 2593,
      "Ġboxes": 2594,
      "Ġmir": 2595,
      "que": 2596,
      "Ġsuit": 2597,
      "Ġthese": 2598,
      "Ġtrucks": 2599,
      "Ġsweetie": 2600,
      "osaur": 2601,
      "Ġdish": 2602,
      "ĠSusie": 2603,
      "Ġord": 2604,
      "Ġmatter": 2605,
      "Ġbarn": 2606,
      "Ġforever": 2607,
      "Ġcovered": 2608,
      "pes": 2609,
      "Ġdinosaur": 2610,
      "ĠEllie": 2611,
      "Ġreg": 2612,
      "Ġglow": 2613,
      "illed": 2614,
      "Ġmu": 2615,
      "ates": 2616,
      "Who": 2617,
      "ĠNemo": 2618,
      "apped": 2619,
      "icked": 2620,
      "Ġclown": 2621,
      "ĠLe": 2622,
      "Ġbuttons": 2623,
      "Ġwheel": 2624,
      "Ġprotect": 2625,
      "Ġnumber": 2626,
      "Ġsplashed": 2627,
      "Ġbushes": 2628,
      "Ġpee": 2629,
      "ipper": 2630,
      "Ġasking": 2631,
      "Amy": 2632,
      "Ġtoug": 2633,
      "ror": 2634,
      "ating": 2635,
      "Ġcage": 2636,
      "Ġtightly": 2637,
      "zed": 2638,
      "Ġprint": 2639,
      "Ġadded": 2640,
      "Ġones": 2641,
      "Ġsol": 2642,
      "ject": 2643,
      "Ġwalks": 2644,
      "Ġtiger": 2645,
      "illi": 2646,
      "lies": 2647,
      "Ġmist": 2648,
      "Ġturtle": 2649,
      "Ġcost": 2650,
      "Ġboring": 2651,
      "Ġfour": 2652,
      "alk": 2653,
      "Ġcreative": 2654,
      "Ġoffice": 2655,
      "Ġadventur": 2656,
      "Ġspoil": 2657,
      "ĠDucky": 2658,
      "und": 2659,
      "Ġscr": 2660,
      "fic": 2661,
      "ĠFin": 2662,
      "Ġdrawing": 2663,
      "Ġcircle": 2664,
      "Ġrough": 2665,
      "Joe": 2666,
      "not": 2667,
      "Ġrich": 2668,
      "Ġcalling": 2669,
      "Ġmedic": 2670,
      "arth": 2671,
      "Ġsuggested": 2672,
      "Ġadventurous": 2673,
      "Ġdisappo": 2674,
      "Ġmirror": 2675,
      "Ġhelpful": 2676,
      "Ġleg": 2677,
      "Ġabove": 2678,
      "Ġlast": 2679,
      "Ġdiffic": 2680,
      "Ġchicken": 2681,
      "Ġtough": 2682,
      "ĠBobby": 2683,
      "Ġstraw": 2684,
      "Ġchase": 2685,
      "Ġcompet": 2686,
      "arry": 2687,
      "Ġskipped": 2688,
      "Ġhats": 2689,
      "scape": 2690,
      "Ġrid": 2691,
      "Ġret": 2692,
      "Ġshape": 2693,
      "Ġfake": 2694,
      "Ġlog": 2695,
      "Ġdogs": 2696,
      "alous": 2697,
      "Ġjealous": 2698,
      "Ġfright": 2699,
      "Ġedge": 2700,
      "Ġcannot": 2701,
      "Ġagainst": 2702,
      "Ġdifficult": 2703,
      "Ġstream": 2704,
      "land": 2705,
      "Ġrare": 2706,
      "Ġkinds": 2707,
      "Ġmod": 2708,
      "Ġfixed": 2709,
      "Ġtwist": 2710,
      "Ġbags": 2711,
      "Ġicy": 2712,
      "Ġmedicine": 2713,
      "Ġtear": 2714,
      "ume": 2715,
      "oppy": 2716,
      "Ġdest": 2717,
      "Ġham": 2718,
      "Ġcover": 2719,
      "Ġsword": 2720,
      "Ġstrugg": 2721,
      "imed": 2722,
      "Ġsoap": 2723,
      "Ġcity": 2724,
      "Ġsil": 2725,
      "Ġsight": 2726,
      "Ġteam": 2727,
      "Ġsounded": 2728,
      "Ġgener": 2729,
      "Ġshells": 2730,
      "Ġbounce": 2731,
      "ness": 2732,
      "Ġcab": 2733,
      "Ġtrunk": 2734,
      "Ġenorm": 2735,
      "Ġcompetit": 2736,
      "Ġenormous": 2737,
      "Ġmighty": 2738,
      "ured": 2739,
      "Ġbloom": 2740,
      "Ġweird": 2741,
      "Ġshone": 2742,
      "Ġbossy": 2743,
      "Ġhunt": 2744,
      "Ġreturn": 2745,
      "Ġwagon": 2746,
      "Ġmap": 2747,
      "Ġminutes": 2748,
      "na": 2749,
      "Ġing": 2750,
      "Ġbubbles": 2751,
      "Ġslipped": 2752,
      "Ġdiscovered": 2753,
      "redient": 2754,
      "Ġingredient": 2755,
      "Ġcrawled": 2756,
      "Ġpolite": 2757,
      "Ġyog": 2758,
      "asing": 2759,
      "Ġgiggled": 2760,
      "Ġwhale": 2761,
      "Ġdisappointed": 2762,
      "Ġsudden": 2763,
      "year": 2764,
      "lla": 2765,
      "ĠPete": 2766,
      "Ġbalance": 2767,
      "Ġpump": 2768,
      "Ġcabin": 2769,
      "erries": 2770,
      "ÅĵWhat": 2771,
      "Ġfier": 2772,
      "Ġegg": 2773,
      "ĠElla": 2774,
      "Ġberries": 2775,
      "Ġless": 2776,
      "Ġang": 2777,
      "Ġhorn": 2778,
      "Ġincred": 2779,
      "ital": 2780,
      "Ġpray": 2781,
      "Ġlow": 2782,
      "orge": 2783,
      "Ġstretch": 2784,
      "dge": 2785,
      "Ġtaught": 2786,
      "Ġdriving": 2787,
      "Ġrecord": 2788,
      "head": 2789,
      "Ġrude": 2790,
      "Ġorganized": 2791,
      "Ġtowers": 2792,
      "Ġgenerous": 2793,
      "Ġfridge": 2794,
      "Ġfeels": 2795,
      "Ġlean": 2796,
      "Ġhosp": 2797,
      "Ġfrightened": 2798,
      "Ġingredients": 2799,
      "Ġstri": 2800,
      "Ġeye": 2801,
      "Ġfierce": 2802,
      "Ġwake": 2803,
      "Ġgrace": 2804,
      "Ġpolice": 2805,
      "Ġbathroom": 2806,
      "Ġisland": 2807,
      "tom": 2808,
      "Ġhospital": 2809,
      "Ġbottom": 2810,
      "Ġearly": 2811,
      "Ġknife": 2812,
      "Ġwrap": 2813,
      "ately": 2814,
      "Ġdesign": 2815,
      "Ġmissed": 2816,
      "Ġpay": 2817,
      "Ġballoons": 2818,
      "ĠBrown": 2819,
      "Ġgoat": 2820,
      "Ġpoint": 2821,
      "keep": 2822,
      "Ġsquee": 2823,
      "ĠTweety": 2824,
      "Ġdizzy": 2825,
      "uitar": 2826,
      "ola": 2827,
      "Ġjewel": 2828,
      "Ġguitar": 2829,
      "Ġjack": 2830,
      "Ġdough": 2831,
      "rag": 2832,
      "Ġcheck": 2833,
      "Ġincredible": 2834,
      "Ġtape": 2835,
      "Ġclay": 2836,
      "Ġhose": 2837,
      "Ġpromise": 2838,
      "Ġstrawber": 2839,
      "Ġgas": 2840,
      "Ġtwig": 2841,
      "Ġbrilli": 2842,
      "yal": 2843,
      "Ġbelonged": 2844,
      "Ġfinger": 2845,
      "Ġhairy": 2846,
      "Ġcounted": 2847,
      "Spot": 2848,
      "Ġbrilliant": 2849,
      "Ġload": 2850,
      "ery": 2851,
      "Ġsearching": 2852,
      "Ġthirst": 2853,
      "ĠDan": 2854,
      "ĠFred": 2855,
      "eorge": 2856,
      "Ġstubb": 2857,
      "ĠAlice": 2858,
      "ado": 2859,
      "ique": 2860,
      "Ġclum": 2861,
      "Ġskin": 2862,
      "ache": 2863,
      "Ġglue": 2864,
      "Ġwand": 2865,
      "Ġbent": 2866,
      "keeper": 2867,
      "Ġstubborn": 2868,
      "'d": 2869,
      "ÅĵLet": 2870,
      "Ġinvited": 2871,
      "Ġremind": 2872,
      "Ġlibr": 2873,
      "Ġasleep": 2874,
      "Ġweek": 2875,
      "ĠTogether": 2876,
      "Ġpil": 2877,
      "Ġunique": 2878,
      "Ġspinning": 2879,
      "How": 2880,
      "Ġstudy": 2881,
      "ĠMar": 2882,
      "Ġforth": 2883,
      "Ġsuccess": 2884,
      "Ġthirsty": 2885,
      "Ġtools": 2886,
      "lph": 2887,
      "oby": 2888,
      "Ġdolph": 2889,
      "cient": 2890,
      "Ġrat": 2891,
      "Ġcarrying": 2892,
      "Ġclumsy": 2893,
      "Ġhoop": 2894,
      "Ġwealthy": 2895,
      "Ġpoured": 2896,
      "Ġwelc": 2897,
      "Ġpainted": 2898,
      "Ġexcla": 2899,
      "oot": 2900,
      "atter": 2901,
      "Ġtunn": 2902,
      "Stop": 2903,
      "Ġpost": 2904,
      "Ġdelicate": 2905,
      "ĠRose": 2906,
      "Ġcher": 2907,
      "Ġple": 2908,
      "Ġrealised": 2909,
      "Ġexclaimed": 2910,
      "Ġloyal": 2911,
      "Ġrose": 2912,
      "Ġstove": 2913,
      "Ġrelax": 2914,
      "corn": 2915,
      "Ġancient": 2916,
      "ilt": 2917,
      "Ġpicking": 2918,
      "Ġears": 2919,
      "Ġspoke": 2920,
      "Gra": 2921,
      "Ġyet": 2922,
      "ĠLeo": 2923,
      "reen": 2924,
      "Ġlamp": 2925,
      "Ġbanana": 2926,
      "aul": 2927,
      "Ġind": 2928,
      "Ġsparkled": 2929,
      "Ġfrown": 2930,
      "Ġchoose": 2931,
      "Ġsorts": 2932,
      "Are": 2933,
      "Ġtummy": 2934,
      "Ġtele": 2935,
      "ped": 2936,
      "Ġcheerful": 2937,
      "ĠBella": 2938,
      "Ġarg": 2939,
      "Ġbeak": 2940,
      "imp": 2941,
      "Ġyarn": 2942,
      "Ġpige": 2943,
      "Ġflour": 2944,
      "Ġroof": 2945,
      "Ġchirp": 2946,
      "Ġwagged": 2947,
      "gest": 2948,
      "Ġter": 2949,
      "Ġref": 2950,
      "ĠDave": 2951,
      "Ġeng": 2952,
      "Ġenvel": 2953,
      "Ġmovie": 2954,
      "ĠBobo": 2955,
      "anut": 2956,
      "Ġdove": 2957,
      "Ġboats": 2958,
      "Ġlights": 2959,
      "Ġbatter": 2960,
      "Ġbean": 2961,
      "Ġcoins": 2962,
      "Ġnosy": 2963,
      "Ġtrust": 2964,
      "Ġlemon": 2965,
      "Ġraced": 2966,
      "Ġrushed": 2967,
      "Ġbiggest": 2968,
      "Ġpopcorn": 2969,
      "Ġwing": 2970,
      "Ġswan": 2971,
      "Ġlead": 2972,
      "Ġpeeked": 2973,
      "het": 2974,
      "Ġsel": 2975,
      "Ġcere": 2976,
      "Ġlouder": 2977,
      "dern": 2978,
      "Ġfrag": 2979,
      "ĠMike": 2980,
      "Ġsnee": 2981,
      "ĠPe": 2982,
      "Ġunl": 2983,
      "iv": 2984,
      "Ġchose": 2985,
      "Ġsoar": 2986,
      "Ġswe": 2987,
      "Ġfaces": 2988,
      "lves": 2989,
      "Ġmodern": 2990,
      "Ġwindows": 2991,
      "ages": 2992,
      "Ġsquare": 2993,
      "oomy": 2994,
      "Ġtank": 2995,
      "aghet": 2996,
      "ĠRe": 2997,
      "Ġquestion": 2998,
      "aghetti": 2999,
      "ibb": 3000,
      "Ġbur": 3001,
      "Ġloves": 3002,
      "Ġext": 3003,
      "Ġrelie": 3004,
      "Ġtomato": 3005,
      "Ġfountain": 3006,
      "Ġwarned": 3007,
      "Ġperform": 3008,
      "Ġzip": 3009,
      "Ġpainting": 3010,
      "Ġspaghetti": 3011,
      "Ġmetal": 3012,
      "Ġfingers": 3013,
      "Ġscreamed": 3014,
      "Ġlab": 3015,
      "Ġselfish": 3016,
      "Ġkicked": 3017,
      "com": 3018,
      "Ġflash": 3019,
      "Ġenth": 3020,
      "Ġdecide": 3021,
      "Ġlaw": 3022,
      "Ġimpat": 3023,
      "ophie": 3024,
      "Ġanx": 3025,
      "Ġimpatient": 3026,
      "Ġmelt": 3027,
      "Ġstairs": 3028,
      "Ġrefused": 3029,
      "Ġbuilt": 3030,
      "Ġwheels": 3031,
      "Ġterri": 3032,
      "Ġfragile": 3033,
      "Ġenthus": 3034,
      "Em": 3035,
      "Ġrubb": 3036,
      "Ġpeanut": 3037,
      "Ġanxious": 3038,
      "Ġcam": 3039,
      "Ġtravel": 3040,
      "Ġhammer": 3041,
      "Ġshiver": 3042,
      "Ġpumpkin": 3043,
      "Ġplayful": 3044,
      "Ġumb": 3045,
      "Ġshark": 3046,
      "anged": 3047,
      "Ġwrapped": 3048,
      "Ġumbre": 3049,
      "Ġstamp": 3050,
      "Ġjug": 3051,
      "Ġobject": 3052,
      "Ġcereal": 3053,
      "Ġok": 3054,
      "Ġbarber": 3055,
      "Ġextra": 3056,
      "ray": 3057,
      "Ġmagn": 3058,
      "Ġdrank": 3059,
      "Ġcomput": 3060,
      "Ġshadow": 3061,
      "ĠU": 3062,
      "amond": 3063,
      "ĠĊĊ": 3064,
      "Ġstat": 3065,
      "Ġmole": 3066,
      "Ġdesk": 3067,
      "Ġcleaning": 3068,
      "Ġcrawl": 3069,
      "Me": 3070,
      "edient": 3071,
      "uring": 3072,
      "Ġsmoke": 3073,
      "Ġenvelope": 3074,
      "Ġdull": 3075,
      "Ġanywhere": 3076,
      "Ġbeet": 3077,
      "Ġhandle": 3078,
      "Ġtowel": 3079,
      "ging": 3080,
      "Ġhelm": 3081,
      "ĠDon": 3082,
      "Ġpatch": 3083,
      "Ġcupboard": 3084,
      "Ġclap": 3085,
      "ops": 3086,
      "Ġsighed": 3087,
      "illa": 3088,
      "Ġarrow": 3089,
      "Ġdiamond": 3090,
      "Ġgrandpa": 3091,
      "tern": 3092,
      "loo": 3093,
      "Ġrep": 3094,
      "ĠGo": 3095,
      "Ġobedient": 3096,
      "Ġgraceful": 3097,
      "Ġchange": 3098,
      "Benny": 3099,
      "Ġgives": 3100,
      "ubby": 3101,
      "Ġpant": 3102,
      "Ġpale": 3103,
      "Ġengine": 3104,
      "Ġdisappeared": 3105,
      "Ġcrack": 3106,
      "ĠFr": 3107,
      "Ġash": 3108,
      "inary": 3109,
      "Ġdepend": 3110,
      "Ġspilled": 3111,
      "Ġcro": 3112,
      "Ġcows": 3113,
      "Ġtoast": 3114,
      "Ġtwirled": 3115,
      "Ġjacket": 3116,
      "Now": 3117,
      "Ġjolly": 3118,
      "amed": 3119,
      "Ġliz": 3120,
      "Ġkiss": 3121,
      "Ġserious": 3122,
      "Ġsleeping": 3123,
      "Ġcamp": 3124,
      "illie": 3125,
      "under": 3126,
      "Ġtied": 3127,
      "ory": 3128,
      "Ġfurther": 3129,
      "Ġhonest": 3130,
      "Ġchar": 3131,
      "Ġprep": 3132,
      "Ġflute": 3133,
      "ention": 3134,
      "Ġimpress": 3135,
      "ley": 3136,
      "Ġcreate": 3137,
      "Ġmailbox": 3138,
      "Ġangel": 3139,
      "Ġdug": 3140,
      "Ġacorn": 3141,
      "Ġrode": 3142,
      "Ġgrowing": 3143,
      "Ġlifted": 3144,
      "Ġnumbers": 3145,
      "comfortable": 3146,
      "Ġstage": 3147,
      "Ġcamera": 3148,
      "Ġmissing": 3149,
      "iable": 3150,
      "Ġgem": 3151,
      "ĠHow": 3152,
      "Ġescape": 3153,
      "Ġuncomfortable": 3154,
      "Ġcooking": 3155,
      "Ġindepend": 3156,
      "kn": 3157,
      "Ġahead": 3158,
      "Ġchubby": 3159,
      "robe": 3160,
      "Ġharm": 3161,
      "ÅĵLetÃ¢": 3162,
      "Ġcheap": 3163,
      "Ġrelieved": 3164,
      "ĠTheir": 3165,
      "ĠBe": 3166,
      "Ġforget": 3167,
      "Ġpopular": 3168,
      "Ġnobody": 3169,
      "Ġskip": 3170,
      "Ġcone": 3171,
      "Ġmanag": 3172,
      "ĠMummy": 3173,
      "Ġumbrella": 3174,
      "Ġpattern": 3175,
      "Ġpigeon": 3176,
      "ndpa": 3177,
      "Ġlizard": 3178,
      "Ġnowhere": 3179,
      "Ġaw": 3180,
      "Ġindependent": 3181,
      "ugged": 3182,
      "Ġreliable": 3183,
      "Ġparade": 3184,
      "Ġguard": 3185,
      "Ġbeetle": 3186,
      "Ġdependable": 3187,
      "Ġforward": 3188,
      "Ġcoll": 3189,
      "Ġjam": 3190,
      "Ġlibrary": 3191,
      "ĠCome": 3192,
      "Ġparrot": 3193,
      "aurant": 3194,
      "Ġhay": 3195,
      "Ġsmaller": 3196,
      "Ġgifted": 3197,
      "Ġcomputer": 3198,
      "Ġcop": 3199,
      "Ġthunder": 3200,
      "Ġclock": 3201,
      "Ġrestaurant": 3202,
      "ressed": 3203,
      "Ġdeliver": 3204,
      "Ġattract": 3205,
      "ĠAlex": 3206,
      "Ġscatter": 3207,
      "Ġdecorate": 3208,
      "Ġdust": 3209,
      "Ġstation": 3210,
      "ĠMrs": 3211,
      "Ġgloomy": 3212,
      "known": 3213,
      "Ġpup": 3214,
      "Ġdead": 3215,
      "Ġadmired": 3216,
      "kers": 3217,
      "tter": 3218,
      "ellig": 3219,
      "Ġtunnel": 3220,
      "Ġflex": 3221,
      "Ġhoped": 3222,
      "Ġpracticed": 3223,
      "ready": 3224,
      "celet": 3225,
      "Ġintellig": 3226,
      "oe": 3227,
      "Ġbracelet": 3228,
      "Ġcrane": 3229,
      "Ġpenny": 3230,
      "Ġterrible": 3231,
      "Good": 3232,
      "Ġpotato": 3233,
      "Ġwhisp": 3234,
      "Ġwire": 3235,
      "Ġpow": 3236,
      "ĠEven": 3237,
      "Ġimpressive": 3238,
      "ĠToby": 3239,
      "Ġseeds": 3240,
      "bled": 3241,
      "cing": 3242,
      "Ġfine": 3243,
      "Ġmill": 3244,
      "Ġsaying": 3245,
      "Ġslides": 3246,
      "ĠBear": 3247,
      "Ġresc": 3248,
      "Ġcompetitive": 3249,
      "!\".": 3250,
      "Ġfearful": 3251,
      "ines": 3252,
      "akes": 3253,
      "Ġscale": 3254,
      "Ġgets": 3255,
      "Ġcartoon": 3256,
      "ĠBuddy": 3257,
      "ĠEverything": 3258,
      "ĠTweetie": 3259,
      "dom": 3260,
      "Ġalready": 3261,
      "Ġpractice": 3262,
      "Ġunknown": 3263,
      "Ġsuper": 3264,
      "stic": 3265,
      "Ġraining": 3266,
      "Ġbump": 3267,
      "Ġregular": 3268,
      "Ġstatue": 3269,
      "oc": 3270,
      "ĠSm": 3271,
      "Ġearth": 3272,
      "Ġrestle": 3273,
      "Ġorder": 3274,
      "Ġrestless": 3275,
      "Ġotter": 3276,
      "Ġrug": 3277,
      "Ġrub": 3278,
      "Ġpebb": 3279,
      "Ġpirate": 3280,
      "Ġflexible": 3281,
      "iastic": 3282,
      "Ġdrawer": 3283,
      "Ġenthusiastic": 3284,
      "inal": 3285,
      "Ġhipp": 3286,
      "Ġstack": 3287,
      "Ġmonkeys": 3288,
      "Ġaunt": 3289,
      "Ġmel": 3290,
      "Ġshaking": 3291,
      "Ġattractive": 3292,
      "ĠMandy": 3293,
      "Ġsunf": 3294,
      "Ġbase": 3295,
      "Ġpony": 3296,
      "iginal": 3297,
      "Ġintelligent": 3298,
      "Ġnail": 3299,
      "Ġsplit": 3300,
      "Ġorganize": 3301,
      "Ġstirred": 3302,
      "awn": 3303,
      "Ġimpressed": 3304,
      "Ġson": 3305,
      "Ġmaybe": 3306,
      "Ġsauce": 3307,
      "Ġgrown": 3308,
      "Ġimagined": 3309,
      "Your": 3310,
      "Ġstranger": 3311,
      "Ġblueber": 3312,
      "cod": 3313,
      "Ġstretched": 3314,
      "ĠLola": 3315,
      "Ġpicks": 3316,
      "Ġusing": 3317,
      "Ġscreen": 3318,
      "Ġsne": 3319,
      "Ġharder": 3320,
      "Ġanyway": 3321,
      "Ġspoiled": 3322,
      "Ġcharming": 3323,
      "Ġheal": 3324,
      "enry": 3325,
      "ric": 3326,
      "Ġbecome": 3327,
      "Ġflashlight": 3328,
      "Ġur": 3329,
      "Ġbitter": 3330,
      "Ġdolphin": 3331,
      "Ġshows": 3332,
      "arlie": 3333,
      "Ġgoose": 3334,
      "Ġquite": 3335,
      "ĠJoey": 3336,
      "Ġbutterflies": 3337,
      "Ġcolours": 3338,
      "Ġuseful": 3339,
      "Mary": 3340,
      "Ġgir": 3341,
      "ĠPat": 3342,
      "Ġloll": 3343,
      "Ġoriginal": 3344,
      "ebra": 3345,
      "Ġpleased": 3346,
      "ĠRed": 3347,
      "aff": 3348,
      "cept": 3349,
      "ummer": 3350,
      "Ġcrayon": 3351,
      "If": 3352,
      "ĠNo": 3353,
      "iew": 3354,
      "hiskers": 3355,
      "Ġmanaged": 3356,
      "gu": 3357,
      "Ġmeas": 3358,
      "Ġcarp": 3359,
      "Ġcounting": 3360,
      "Ġcrocod": 3361,
      "Ġbicy": 3362,
      "Ġfool": 3363,
      "ĠBill": 3364,
      "Ġenv": 3365,
      "Ġfighting": 3366,
      "Ġfilthy": 3367,
      "io": 3368,
      "uz": 3369,
      "Ġtooth": 3370,
      "Ġgro": 3371,
      "htub": 3372,
      "Ġboys": 3373,
      "Ġview": 3374,
      "Ġexplored": 3375,
      "Ġtriang": 3376,
      "Ġspring": 3377,
      "case": 3378,
      "Ġfre": 3379,
      "Ġphot": 3380,
      "Ġsolve": 3381,
      "host": 3382,
      "Ġenc": 3383,
      "Ġzebra": 3384,
      "Ġbathtub": 3385,
      "ature": 3386,
      "Ġpants": 3387,
      "Ġfoolish": 3388,
      "Ġplaced": 3389,
      "Ġmush": 3390,
      "Ġfields": 3391,
      "appy": 3392,
      "Ġcrazy": 3393,
      "Ġturkey": 3394,
      "Ġcollar": 3395,
      "Ġmushroom": 3396,
      "Ġlollip": 3397,
      "Ġneat": 3398,
      "Ġscoot": 3399,
      "Ġchanged": 3400,
      "Ġgor": 3401,
      "Ġbounced": 3402,
      "Ġsurf": 3403,
      "Ġsoldier": 3404,
      "ination": 3405,
      "Ġghost": 3406,
      "Ġhurry": 3407,
      "Ġer": 3408,
      "Ġclub": 3409,
      "Ġwaff": 3410,
      "Ġhook": 3411,
      "Ġchasing": 3412,
      "Ġpaws": 3413,
      "cu": 3414,
      "Ġshut": 3415,
      "Ġstarting": 3416,
      "Ġcomb": 3417,
      "Ġscare": 3418,
      "Ġnorm": 3419,
      "Ġbull": 3420,
      "Ġsalad": 3421,
      "Ġcricket": 3422,
      "gie": 3423,
      "Ġwitch": 3424,
      "Ġpian": 3425,
      "Ġitself": 3426,
      "Ġwhispered": 3427,
      "Ġwip": 3428,
      "hood": 3429,
      "Ġlocked": 3430,
      "Ġtrack": 3431,
      "Ġpersist": 3432,
      "Ġlear": 3433,
      "ĠGrace": 3434,
      "Ġpasta": 3435,
      "Ġhippo": 3436,
      "ief": 3437,
      "Ġword": 3438,
      "Ġairport": 3439,
      "Ġpiano": 3440,
      "Ġcelebrate": 3441,
      "Ġordinary": 3442,
      "Ġmask": 3443,
      "Ġresist": 3444,
      "Ġlions": 3445,
      "Ġcareless": 3446,
      "cas": 3447,
      "Ġhelpless": 3448,
      "Ġfresh": 3449,
      "Ġspeed": 3450,
      "ano": 3451,
      "Ġjet": 3452,
      "Ġbadly": 3453,
      "Ġstared": 3454,
      "ĠJerry": 3455,
      "Ġcube": 3456,
      "Ġhunter": 3457,
      "Ġhero": 3458,
      "Ġbuzz": 3459,
      "Ġdeaf": 3460,
      "icop": 3461,
      "Ġolder": 3462,
      "Ġthoughtful": 3463,
      "Ġpretending": 3464,
      "Ġcarpet": 3465,
      "icopter": 3466,
      "cream": 3467,
      "Ġsuccessful": 3468,
      "Ġnormal": 3469,
      "erable": 3470,
      "Ġyawn": 3471,
      "Ġraven": 3472,
      "Ġlively": 3473,
      "Ġshowing": 3474,
      "Ġallowed": 3475,
      "arian": 3476,
      "ĠPolly": 3477,
      "Ġpengu": 3478,
      "Ġmiserable": 3479,
      "Ġhelicopter": 3480,
      "Ġpackage": 3481,
      "Ġbees": 3482,
      "Ġscoop": 3483,
      "Ġshine": 3484,
      "ĠGeorge": 3485,
      "Ġrubbed": 3486,
      "Ġhelmet": 3487,
      "Ġharmless": 3488,
      "And": 3489,
      "Ġbet": 3490,
      "Ġhall": 3491,
      "ĠcouldnÃ¢": 3492,
      "Ġletters": 3493,
      "Ġcardboard": 3494,
      "ĠMy": 3495,
      "Ġcrocodile": 3496,
      "Alice": 3497,
      "ĠCl": 3498,
      "Ġalert": 3499,
      "Ġenvious": 3500,
      "Ġtripped": 3501,
      "Ġattic": 3502,
      "Ġbicycle": 3503,
      "ĠBet": 3504,
      "Ġhanded": 3505,
      "Ġuniver": 3506,
      "coa": 3507,
      "Ġgorilla": 3508,
      "cut": 3509,
      "Ġsink": 3510,
      "Ġcountry": 3511,
      "Ġnote": 3512,
      "az": 3513,
      "Ġpersistent": 3514,
      "ĠWhenever": 3515,
      "Ġtrap": 3516,
      "gust": 3517,
      "Ġtimes": 3518,
      "Ġcompass": 3519,
      "Ġinvest": 3520,
      "Ġsteps": 3521,
      "Ġvolc": 3522,
      "Ġclosely": 3523,
      "Ġtroubled": 3524,
      "Today": 3525,
      "Ġprize": 3526,
      "Ġvide": 3527,
      "Ġinvestig": 3528,
      "Ġvolcano": 3529,
      "Ġcleaned": 3530,
      "Ġsteal": 3531,
      "Ġhuman": 3532,
      "Ġsilver": 3533,
      "Ġrece": 3534,
      "Ġvine": 3535,
      "Ġdisgust": 3536,
      "Ġmeans": 3537,
      "Ġpurse": 3538,
      "Ġtask": 3539,
      "Ġknock": 3540,
      "Ġtire": 3541,
      "ĠPlease": 3542,
      "Ġbarrel": 3543,
      "Give": 3544,
      "ser": 3545,
      "Ġsniff": 3546,
      "Ġsquash": 3547,
      "Ġpushing": 3548,
      "Ġenjoying": 3549,
      "ext": 3550,
      "ĠSophie": 3551,
      "Ġcap": 3552,
      "Ġtelling": 3553,
      "Ġsummer": 3554,
      "Ġbri": 3555,
      "Ġcompl": 3556,
      "Ġcush": 3557,
      "ĠSn": 3558,
      "Ġdreamed": 3559,
      "Daddy": 3560,
      "Ġgum": 3561,
      "llie": 3562,
      "Ġpear": 3563,
      "Ġtray": 3564,
      "Ġsunflower": 3565,
      "ĠWhiskers": 3566,
      "Ġburn": 3567,
      "Ġrice": 3568,
      "Ġcats": 3569,
      "ĠAndy": 3570,
      "Inside": 3571,
      "Ġhedge": 3572,
      "Ġcards": 3573,
      "Ġmug": 3574,
      "stri": 3575,
      "Ġmeal": 3576,
      "Ġuncle": 3577,
      "Ġinvestigate": 3578,
      "tain": 3579,
      "ĠBrownie": 3580,
      "Ġmarry": 3581,
      "Ġnurse": 3582,
      "Ġholes": 3583,
      "Ġpepper": 3584,
      "Ġchickens": 3585,
      "ĠWhy": 3586,
      "Ġgiving": 3587,
      "Ġdestro": 3588,
      "Ġcompassion": 3589,
      "Ġcocoa": 3590,
      "Ġcooked": 3591,
      "Ġavoc": 3592,
      "Ġjeep": 3593,
      "ophone": 3594,
      "Ġbarking": 3595,
      "Little": 3596,
      "Ġtor": 3597,
      "astic": 3598,
      "Ġhumble": 3599,
      "Ġnuts": 3600,
      "ipping": 3601,
      "Ġboots": 3602,
      "Ġshield": 3603,
      "Ġrolling": 3604,
      "Ġwheat": 3605,
      "ected": 3606,
      "Ġpair": 3607,
      "Ġtremb": 3608,
      "Ġbasketball": 3609,
      "iches": 3610,
      "Ġpeek": 3611,
      "Ġsend": 3612,
      "Ġtaken": 3613,
      "orable": 3614,
      "Ġleop": 3615,
      "ĠPaul": 3616,
      "Ġmelon": 3617,
      "Ġgrocer": 3618,
      "Ġscrew": 3619,
      "Ġthread": 3620,
      "apa": 3621,
      "Ġadorable": 3622,
      "Ġtrump": 3623,
      "Ġneeds": 3624,
      "lete": 3625,
      "Ġdisgusting": 3626,
      "Ġonce": 3627,
      "Ġfork": 3628,
      "opus": 3629,
      "ctopus": 3630,
      "Ġdive": 3631,
      "Ġthief": 3632,
      "eath": 3633,
      "Ġpal": 3634,
      "izes": 3635,
      "Ġcomplete": 3636,
      "cycle": 3637,
      "Ġdistant": 3638,
      "fa": 3639,
      "Ġsaf": 3640,
      "Ġribb": 3641,
      "Ġseal": 3642,
      "Ġdisag": 3643,
      "Ġpolish": 3644,
      "Ġpor": 3645,
      "Ġpole": 3646,
      "Ġneighbour": 3647,
      "Ġsizes": 3648,
      "nda": 3649,
      "Ġchalk": 3650,
      "Ġshoe": 3651,
      "ĠKim": 3652,
      "Ġrag": 3653,
      "ict": 3654,
      "ebook": 3655,
      "Ġdelighted": 3656,
      "Ġnotebook": 3657,
      "Ġcomet": 3658,
      "Ġhung": 3659,
      "Ġoctopus": 3660,
      "Ġallig": 3661,
      "Ġmicr": 3662,
      "Ġlesson": 3663,
      "Ġoat": 3664,
      "ĠSmith": 3665,
      "Re": 3666,
      "Ġwashed": 3667,
      "ĠBunny": 3668,
      "aggie": 3669,
      "Ġputting": 3670,
      "Ġfinds": 3671,
      "ision": 3672,
      "Ġscooter": 3673,
      "Ġleopard": 3674,
      "Ġhive": 3675,
      "ĠIf": 3676,
      "Ġquar": 3677,
      "Ġtrumpet": 3678,
      "Ġunderstood": 3679,
      "Ġfalling": 3680,
      "Ġsandwiches": 3681,
      "ges": 3682,
      "ĠBun": 3683,
      "Ġcact": 3684,
      "Ġener": 3685,
      "Ġtells": 3686,
      "Ġbubble": 3687,
      "Ġpalace": 3688,
      "aroo": 3689,
      "angaroo": 3690,
      "Ġsweater": 3691,
      "strich": 3692,
      "Ġobser": 3693,
      "Ġstuffed": 3694,
      "ron": 3695,
      "Ġmicrophone": 3696,
      "inking": 3697,
      "atch": 3698,
      "Ġstronger": 3699,
      "Ġbeep": 3700,
      "Ġreturned": 3701,
      "Ġsofa": 3702,
      "Ġnames": 3703,
      "Ġgolf": 3704,
      "Ġvi": 3705,
      "Ġants": 3706,
      "Ġrepair": 3707,
      "Ġjoined": 3708,
      "Ġraft": 3709,
      "Ġmagnet": 3710,
      "pers": 3711,
      "Ġkangaroo": 3712,
      "ÅĵIt": 3713,
      "Ġshopkeeper": 3714,
      "Ġcurtain": 3715,
      "ube": 3716,
      "Ġmoms": 3717,
      "Ġhope": 3718,
      "iness": 3719,
      "Ġmeat": 3720,
      "Ġpressed": 3721,
      "Ġcandle": 3722,
      "Ġharsh": 3723,
      "Ġdestroy": 3724,
      "âĤ¬âĢ": 3725,
      "acked": 3726,
      "Ġelev": 3727,
      "Ġradio": 3728,
      "Ġcactus": 3729,
      "ilty": 3730,
      "ĠSandy": 3731,
      "Ġguilty": 3732,
      "Ġblowing": 3733,
      "Ġcostume": 3734,
      "Ġtriangle": 3735,
      "Ġwife": 3736,
      "Ġsheet": 3737,
      "Ġencou": 3738,
      "ino": 3739,
      "Ġclimbing": 3740,
      "Ġsandbox": 3741,
      "Ġbelt": 3742,
      "Ġswinging": 3743,
      "Ġelevator": 3744,
      "Hel": 3745,
      "Ġped": 3746,
      "Ġguess": 3747,
      "Ġpoem": 3748,
      "Ġdishes": 3749,
      "Ġsy": 3750,
      "Ġonion": 3751,
      "Ġframe": 3752,
      "Ġunpack": 3753,
      "ations": 3754,
      "Ġhanging": 3755,
      "uzz": 3756,
      "Ġmuff": 3757,
      "acht": 3758,
      "Ġtheater": 3759,
      "Ġyacht": 3760,
      "fee": 3761,
      "Ġreading": 3762,
      "Ġsalt": 3763,
      "Ġfle": 3764,
      "Ġaccept": 3765,
      "Ġhurts": 3766,
      "Ġhaircut": 3767,
      "ait": 3768,
      "Ġtube": 3769,
      "Ġsecond": 3770,
      "upid": 3771,
      "Ġadmire": 3772,
      "Ġbin": 3773,
      "Ġinsist": 3774,
      "Ġunlock": 3775,
      "ffee": 3776,
      "Ġoy": 3777,
      "ĠdidnÃ¢": 3778,
      "Ġsoil": 3779,
      "Ġriding": 3780,
      "Ġleaned": 3781,
      "heart": 3782,
      "orant": 3783,
      "rage": 3784,
      "ĠGrandpa": 3785,
      "Everyone": 3786,
      "ĠMaria": 3787,
      "Ġcompassionate": 3788,
      "Ġtorn": 3789,
      "used": 3790,
      "Ġswitch": 3791,
      "Ġfirework": 3792,
      "Ġhotel": 3793,
      "Ġcounter": 3794,
      "Ġfootball": 3795,
      "Ġreminded": 3796,
      "Ġten": 3797,
      "Ġlightning": 3798,
      "Ġtap": 3799,
      "Ġostrich": 3800,
      "Ġpapers": 3801,
      "Ġshrimp": 3802,
      "Ġfilm": 3803,
      "ither": 3804,
      "Ġcreatures": 3805,
      "Ġalligator": 3806,
      "Ġtrains": 3807,
      "Ġwiped": 3808,
      "Ġrescue": 3809,
      "Ġleash": 3810,
      "Ġsnugg": 3811,
      "ÅĵYes": 3812,
      "Ġsailor": 3813,
      "Ġmodest": 3814,
      "Ġmen": 3815,
      "Ġstupid": 3816,
      "Ġgoal": 3817,
      "uckily": 3818,
      "Ġwallet": 3819,
      "Ġcooler": 3820,
      "Ġzoomed": 3821,
      "Ġrubber": 3822,
      "Ġknot": 3823,
      "Ġthinking": 3824,
      "Ġjellyfish": 3825,
      "Ġcase": 3826,
      "Ġhugs": 3827,
      "Ġignorant": 3828,
      "Ġcudd": 3829,
      "reeze": 3830,
      "Ġshovel": 3831,
      "Ġhelps": 3832,
      "Ġlaund": 3833,
      "Ġmarched": 3834,
      "Ġporch": 3835,
      "Ġnotice": 3836,
      "Ġneedle": 3837,
      "Ġfinding": 3838,
      "urb": 3839,
      "ĠWould": 3840,
      "Ġcrawling": 3841,
      "Ġlaundry": 3842,
      "stairs": 3843,
      "Ġbul": 3844,
      "Ġcomfort": 3845,
      "Ġfolder": 3846,
      "Help": 3847,
      "Ġsaus": 3848,
      "Ġhalf": 3849,
      "ĠRos": 3850,
      "Ġdisturb": 3851,
      "ccer": 3852,
      "Ġpad": 3853,
      "Ġbrighter": 3854,
      "urt": 3855,
      "Ġtears": 3856,
      "Ġlaser": 3857,
      "Ġshort": 3858,
      "Ġcryst": 3859,
      "castle": 3860,
      "lter": 3861,
      "Ġlid": 3862,
      "Ġmath": 3863,
      "Ġpeach": 3864,
      "Daisy": 3865,
      "Ġcree": 3866,
      "Ġsoccer": 3867,
      "Ġsandcastle": 3868,
      "Ġperm": 3869,
      "olin": 3870,
      "Ġsize": 3871,
      "Ġevening": 3872,
      "Ġvend": 3873,
      "Ġinse": 3874,
      "Ġsock": 3875,
      "Ġlicked": 3876,
      "selves": 3877,
      "Ġloop": 3878,
      "ĠMillie": 3879,
      "Ġspell": 3880,
      "Ġshelter": 3881,
      "Ġcoffee": 3882,
      "Ġdressed": 3883,
      "Ġcushion": 3884,
      "elery": 3885,
      "Ġfactor": 3886,
      "affe": 3887,
      "Ġplastic": 3888,
      "Ġbears": 3889,
      "Ġtrick": 3890,
      "Ġcord": 3891,
      "Ġkay": 3892,
      "ĠLilly": 3893,
      "Ġbananas": 3894,
      "Well": 3895,
      "Ġax": 3896,
      "Ġink": 3897,
      "Ġwhist": 3898,
      "Ġwinter": 3899,
      "Ġquarrel": 3900,
      "ef": 3901,
      "iron": 3902,
      "seum": 3903,
      "Ġproudly": 3904,
      "Ġdiscover": 3905,
      "Ġfactory": 3906,
      "ckey": 3907,
      "Ġshade": 3908,
      "Ġhockey": 3909,
      "Ġtrue": 3910,
      "ween": 3911,
      "ito": 3912,
      "Ġclapping": 3913,
      "Ġpilot": 3914,
      "Ġpebble": 3915,
      "Ġfireman": 3916,
      "Ġbetween": 3917,
      "Ġbulb": 3918,
      "Ġtax": 3919,
      "Ġways": 3920,
      "Ġmuseum": 3921,
      "Ġpainter": 3922,
      "Ġpetals": 3923,
      "Ġspeak": 3924,
      "Ġmild": 3925,
      "Ġeraser": 3926,
      "ince": 3927,
      "Ġfort": 3928,
      "urch": 3929,
      "ĠPapa": 3930,
      "Ġkitty": 3931,
      "Ġinsect": 3932,
      "aked": 3933,
      "azz": 3934,
      "quito": 3935,
      "Ġpowder": 3936,
      "Ġaxe": 3937,
      "wards": 3938,
      "Ġchain": 3939,
      "Ġgiraffe": 3940,
      "Ġol": 3941,
      "Ġstom": 3942,
      "Ġskirt": 3943,
      "ips": 3944,
      "Ġbaseball": 3945,
      "ccol": 3946,
      "ues": 3947,
      "Ġcelery": 3948,
      "Ġmama": 3949,
      "Sammy": 3950,
      "Ġmessage": 3951,
      "Ġstrawberry": 3952,
      "ccoli": 3953,
      "Ġsadly": 3954,
      "Jenny": 3955,
      "noon": 3956,
      "Ġcable": 3957,
      "Ġafternoon": 3958,
      "Ġprov": 3959,
      "Ġhut": 3960,
      "Ġthose": 3961,
      "Ġreef": 3962,
      "Ġseas": 3963,
      "Ġexplain": 3964,
      "Ġtomorrow": 3965,
      "ĠHarry": 3966,
      "Ġlose": 3967,
      "Ġimagine": 3968,
      "Ġappro": 3969,
      "Ġlollipop": 3970,
      "Ġpenguin": 3971,
      "Ġnature": 3972,
      "anic": 3973,
      "Ġmos": 3974,
      "Ġiron": 3975,
      "Ġtrail": 3976,
      "Ġdiscu": 3977,
      "Ġsweetheart": 3978,
      "Ġtuna": 3979,
      "Ġcreek": 3980,
      "Ġtaxi": 3981,
      "Ġaer": 3982,
      "Ġnods": 3983,
      "Ġtrave": 3984,
      "Ġvendor": 3985,
      "Ġtub": 3986,
      "chanic": 3987,
      "Ġknob": 3988,
      "ĠCharlie": 3989,
      "Ġenergy": 3990,
      "Ġmosquito": 3991,
      "par": 3992,
      "Ġpun": 3993,
      "Ġbackpack": 3994,
      "Ġhears": 3995,
      "Ġfishing": 3996,
      "Ġbreeze": 3997,
      "ĠBaby": 3998,
      "opl": 3999,
      "Ġflame": 4000,
      "Ġmechanic": 4001,
      "Ġbroccoli": 4002,
      "Ġsteak": 4003,
      "Ġholds": 4004,
      "Ġyogurt": 4005,
      "chair": 4006,
      "Ġlawy": 4007,
      "Ġaeropl": 4008,
      "iling": 4009,
      "Ġherb": 4010,
      "Ġmixer": 4011,
      "Ġdiary": 4012,
      "Ġphoto": 4013,
      "ĠTony": 4014,
      "aled": 4015,
      "play": 4016,
      "place": 4017,
      "Ch": 4018,
      "Ġoil": 4019,
      "Ġbury": 4020,
      "ĠLook": 4021,
      "Ġgrapes": 4022,
      "Ġmaze": 4023,
      "Ġplanet": 4024,
      "Ġlaughs": 4025,
      "iture": 4026,
      "Ġpanda": 4027,
      "urniture": 4028,
      "Ġeagerly": 4029,
      "Ġitch": 4030,
      "ym": 4031,
      "Ġlime": 4032,
      "Ġinf": 4033,
      "Ġbaking": 4034,
      "Next": 4035,
      "Ġfurniture": 4036,
      "ĠTed": 4037,
      "Ġtwink": 4038,
      "Ġzipper": 4039,
      "Ġlearning": 4040,
      "eer": 4041,
      "Ġrh": 4042,
      "Ġmagaz": 4043,
      "Ġmotorcycle": 4044,
      "ses": 4045,
      "Ġgym": 4046,
      "Ġsomewhere": 4047,
      "Ġarmchair": 4048,
      "ĠTr": 4049,
      "Ġlawn": 4050,
      "Ġstickers": 4051,
      "ĠAnnie": 4052,
      "Ġcherries": 4053,
      "Ġpipe": 4054,
      "Ġrot": 4055,
      "Ġcane": 4056,
      "Ġvroom": 4057,
      "Ġtricks": 4058,
      "Ġavocado": 4059,
      "aches": 4060,
      "Ġfrogs": 4061,
      "Ġfisher": 4062,
      "Ġashamed": 4063,
      "Ġsepar": 4064,
      "Ġpit": 4065,
      "kelet": 4066,
      "Ġdisplay": 4067,
      "Ġgiggle": 4068,
      "Ġviolin": 4069,
      "Ġcrystal": 4070,
      "Ġwool": 4071,
      "ippery": 4072,
      "Ġflea": 4073,
      "Go": 4074,
      "Ġled": 4075,
      "Ġslippery": 4076,
      "Ġchurch": 4077,
      "Ġbehave": 4078,
      "Ġattach": 4079,
      "Ġstaff": 4080,
      "ĠAl": 4081,
      "orses": 4082,
      "Ġmule": 4083,
      "Ġkayak": 4084,
      "Ġhorses": 4085,
      "Ġlend": 4086,
      "Ġreind": 4087,
      "Ġjourn": 4088,
      "Ġfrowned": 4089,
      "inarian": 4090,
      "Ġshouting": 4091,
      "Ġsquirrels": 4092,
      "eterinarian": 4093,
      "Ġcups": 4094,
      "Ġspir": 4095,
      "Ġkingdom": 4096,
      "Ġgear": 4097,
      "Ġplayer": 4098,
      "ĠEveryday": 4099,
      "Ġglowing": 4100,
      "Ġtemp": 4101,
      "Ġjournal": 4102,
      "Ġcapt": 4103,
      "Ġfauce": 4104,
      "Ġveterinarian": 4105,
      "Ġentered": 4106,
      "Ġsucceed": 4107,
      "Ġlawyer": 4108,
      "keleton": 4109,
      "Ġfaucet": 4110,
      "Ġstud": 4111,
      "Ġdresses": 4112,
      "ĠKate": 4113,
      "Ġfireplace": 4114,
      "Ġbandage": 4115,
      "tress": 4116,
      "Ġrhino": 4117,
      "Ġstable": 4118,
      "ĠEach": 4119,
      "Ġyourself": 4120,
      "Ġmattress": 4121,
      "imney": 4122,
      "Ġbeauty": 4123,
      "Ġfloat": 4124,
      "Ġmint": 4125,
      "Ġweigh": 4126,
      "ĠEventually": 4127,
      "Ġtrop": 4128,
      "Ġmeeting": 4129,
      "Ġclassroom": 4130,
      "Ġtemple": 4131,
      "ĠHenry": 4132,
      "Ġwandered": 4133,
      "Ġcrib": 4134,
      "Wait": 4135,
      "Ġfisherman": 4136,
      "Ġseem": 4137,
      "Ġchimney": 4138,
      "Ġdoors": 4139,
      "Ġtrophy": 4140,
      "hero": 4141,
      "Ġroared": 4142,
      "ĠWill": 4143,
      "Ġvest": 4144,
      "Ġsailing": 4145,
      "Ġavail": 4146,
      "mbol": 4147,
      "medi": 4148,
      "Ġsuperhero": 4149,
      "Ġreindeer": 4150,
      "Ġskeleton": 4151,
      "Ġcaul": 4152,
      "Ġincl": 4153,
      "Ġjokes": 4154,
      "Ġsymbol": 4155,
      "mediately": 4156,
      "imi": 4157,
      "Ġflapped": 4158,
      "Ġwhenever": 4159,
      "Ġsent": 4160,
      "Ġwigg": 4161,
      "Ġfive": 4162,
      "rod": 4163,
      "Ġcastles": 4164,
      "ĠRosie": 4165,
      "Ġtoes": 4166,
      "Ġpage": 4167,
      "Ġhadn": 4168,
      "Ġbikes": 4169,
      "Ġrake": 4170,
      "Ġcaulif": 4171,
      "mand": 4172,
      "Ġsprink": 4173,
      "Ġsneak": 4174,
      "was": 4175,
      "Ġswamp": 4176,
      "Ġquit": 4177,
      "Ġimpro": 4178,
      "umber": 4179,
      "Ġminute": 4180,
      "Ġspirit": 4181,
      "Ġsle": 4182,
      "Ġintrod": 4183,
      "Emma": 4184,
      "Ġavailable": 4185,
      "nam": 4186,
      "atie": 4187,
      "Ġoak": 4188,
      "ĠIts": 4189,
      "ĠJess": 4190,
      "Ġshower": 4191,
      "Ġweather": 4192,
      "Ġrepe": 4193,
      "Ġvideo": 4194,
      "erc": 4195,
      "Ġspear": 4196,
      "Ġglove": 4197,
      "washer": 4198,
      "Ġrac": 4199,
      "ents": 4200,
      "ogn": 4201,
      "Ġrecogn": 4202,
      "Ġharb": 4203,
      "achel": 4204,
      "Ġoyster": 4205,
      "Ġfog": 4206,
      "Ġpinch": 4207,
      "gen": 4208,
      "ÅĵThat": 4209,
      "Ġnewsp": 4210,
      "rosc": 4211,
      "Ġdishwasher": 4212,
      "Ġnewspap": 4213,
      "ring": 4214,
      "inked": 4215,
      "Ġnapkin": 4216,
      "ceros": 4217,
      "uzzy": 4218,
      "Ġlip": 4219,
      "Ġgasped": 4220,
      "roscope": 4221,
      "ense": 4222,
      "Ġbookcase": 4223,
      "Ġhills": 4224,
      "anges": 4225,
      "Ġbouncing": 4226,
      "Ġstraight": 4227,
      "Ġstruggling": 4228,
      "Ġcabinet": 4229,
      "Ġcauliflower": 4230,
      "Ġleaving": 4231,
      "Ġpuddles": 4232,
      "Ġgolden": 4233,
      "Ġig": 4234,
      "Ġsub": 4235,
      "itter": 4236,
      "Ġdreams": 4237,
      "Ġaeroplane": 4238,
      "Ġpine": 4239,
      "Ġsaved": 4240,
      "Ġrever": 4241,
      "Ġmicroscope": 4242,
      "iday": 4243,
      "Ġgrey": 4244,
      "Ġbeef": 4245,
      "Ġpopped": 4246,
      "Ġmop": 4247,
      "Ġcob": 4248,
      "Ġkneel": 4249,
      "Ġdrawings": 4250,
      "ĠDanny": 4251,
      "Ġigloo": 4252,
      "Ġcoal": 4253,
      "Ġlotion": 4254,
      "Ġprepare": 4255,
      "uth": 4256,
      "ĠPeople": 4257,
      "eve": 4258,
      "web": 4259,
      "Ġexerc": 4260,
      "Ġornam": 4261,
      "Ġdancer": 4262,
      "Ġpassport": 4263,
      "Ġrhinoceros": 4264,
      "gl": 4265,
      "Ġcliff": 4266,
      "Ġwis": 4267,
      "Ġjunk": 4268,
      "Ġapron": 4269,
      "Ġapproached": 4270,
      "Ġinfant": 4271,
      "Ann": 4272,
      "Ġpoke": 4273,
      "Ġdemand": 4274,
      "Ġmoral": 4275,
      "hic": 4276,
      "Ġcre": 4277,
      "omed": 4278,
      "Ġharbor": 4279,
      "lend": 4280,
      "Ġmakeup": 4281,
      "Ġblinked": 4282,
      "Ġvehic": 4283,
      "Ġblankets": 4284,
      "Ġsprayed": 4285,
      "Ġhol": 4286,
      "Ġbelow": 4287,
      "ĠInstead": 4288,
      "Ġfreez": 4289,
      "Ġfastest": 4290,
      "Ġairpl": 4291,
      "Ġholiday": 4292,
      "Ġbirdc": 4293,
      "Ġblackboard": 4294,
      "Ġsupport": 4295,
      "Ġwelcome": 4296,
      "âĤ¬âĢľ": 4297,
      "ĠWhere": 4298,
      "Ġpress": 4299,
      "Ġspade": 4300,
      "Ġskull": 4301,
      "Ġwhisper": 4302,
      "Ġveil": 4303,
      "Ġcollected": 4304,
      "Ġflutter": 4305,
      "Ġyoga": 4306,
      "Ġbuzzing": 4307,
      "Ġcobweb": 4308,
      "Ġfu": 4309,
      "Ġcries": 4310,
      "Ġyours": 4311,
      "Ġceiling": 4312,
      "glass": 4313,
      "aw": 4314,
      "vision": 4315,
      "Ġbirdcage": 4316,
      "render": 4317,
      "Ġprun": 4318,
      "ucture": 4319,
      "Ġminer": 4320,
      "Will": 4321,
      "come": 4322,
      "ĠAb": 4323,
      "Ġstructure": 4324,
      "Ġamb": 4325,
      "Ġdrop": 4326,
      "Ġshrink": 4327,
      "Ġticket": 4328,
      "Ġtelevision": 4329,
      "Eventually": 4330,
      "ĠTh": 4331,
      "uct": 4332,
      "Ġfalls": 4333,
      "Ġvalley": 4334,
      "una": 4335,
      "Ġchairs": 4336,
      "Ġpresents": 4337,
      "ĠSnow": 4338,
      "Ġfile": 4339,
      "Ġsunglass": 4340,
      "essert": 4341,
      "Ġinvit": 4342,
      "Ġchirping": 4343,
      "ĊĠ": 4344,
      "Ġrow": 4345,
      "ucked": 4346,
      "Ġsmells": 4347,
      "Ġshrugged": 4348,
      "Ġignored": 4349,
      "Ġsunglasses": 4350,
      "Ġdessert": 4351,
      "Ġcomplain": 4352,
      "Mandy": 4353,
      "Ġrequ": 4354,
      "Ġjud": 4355,
      "Ġnovel": 4356,
      "Ġgrill": 4357,
      "ulance": 4358,
      "Together": 4359,
      "Ġbill": 4360,
      "Ġberry": 4361,
      "Ġswung": 4362,
      "Ġmusician": 4363,
      "Ġrail": 4364,
      "shed": 4365,
      "Ġtoil": 4366,
      "any": 4367,
      "Grandma": 4368,
      "Ġambulance": 4369,
      "iform": 4370,
      "Ġuniform": 4371,
      "Ġopens": 4372,
      "Ġmarble": 4373,
      "Ġplanes": 4374,
      "Ġappl": 4375,
      "Ġfloating": 4376,
      "Ġtoilet": 4377,
      "Ġwaving": 4378,
      "ĠBuzz": 4379,
      "Ġshoulder": 4380,
      "Ġsurround": 4381,
      "Ġnewspaper": 4382,
      "low": 4383,
      "ĠClara": 4384,
      "Ġmagazine": 4385,
      "Ġtut": 4386,
      "Ġpist": 4387,
      "Ġvac": 4388,
      "Ġsque": 4389,
      "Ġsafely": 4390,
      "asis": 4391,
      "Ġhoping": 4392,
      "Ġpistol": 4393,
      "arm": 4394,
      "Ġhappiness": 4395,
      "Ġpirates": 4396,
      "ĠFreddy": 4397,
      "Ġsoftly": 4398,
      "Ġsplashing": 4399,
      "uby": 4400,
      "anny": 4401,
      "Ġoasis": 4402,
      "Ġweep": 4403,
      "Ġseeing": 4404,
      "Ġcoats": 4405,
      "Ġteleph": 4406,
      "ival": 4407,
      "Ġgust": 4408,
      "ĠJul": 4409,
      "Ġradish": 4410,
      "ĠRex": 4411,
      "Ġdigg": 4412,
      "Ġsteam": 4413,
      "Ġraise": 4414,
      "riger": 4415,
      "anna": 4416,
      "Ġchess": 4417,
      "Ġward": 4418,
      "Ġtelephone": 4419,
      "rigerator": 4420,
      "Ġtaller": 4421,
      "Ġpigs": 4422,
      "Ġrefrigerator": 4423,
      "Ġgrocery": 4424,
      "Ġwardrobe": 4425,
      "Ġthemselves": 4426,
      "Ġdecorations": 4427,
      "Ġdigging": 4428,
      "Ġsqueeze": 4429,
      "cakes": 4430,
      "Ġcell": 4431,
      "Ġimmediately": 4432,
      "Ġwriting": 4433,
      "Ġvet": 4434,
      "Ġsharing": 4435,
      "Ġserve": 4436,
      "Ġexamine": 4437,
      "Ġbattery": 4438,
      "ĠBetsy": 4439,
      "vet": 4440,
      "Ġthumb": 4441,
      "Ġcalend": 4442,
      "Ġpushes": 4443,
      "angu": 4444,
      "Ġcaptain": 4445,
      "Ġcalendar": 4446,
      "Ġlumber": 4447,
      "Ġlangu": 4448,
      "Ġga": 4449,
      "Ġinst": 4450,
      "Ġbegged": 4451,
      "ĠdonÃ¢": 4452,
      "Ġbravely": 4453,
      "Ġunh": 4454,
      "Ġthrowing": 4455,
      "Ġinsisted": 4456,
      "elcome": 4457,
      "ores": 4458,
      "iest": 4459,
      "te": 4460,
      "rm": 4461,
      "Ġpastry": 4462,
      "Ġblueberries": 4463,
      "Ġrise": 4464,
      "ement": 4465,
      "Ġwelcomed": 4466,
      "Ġsnuggled": 4467,
      "Ġopera": 4468,
      "ĠTrue": 4469,
      "chor": 4470,
      "Ġknowing": 4471,
      "Ġmass": 4472,
      "Ġrabbits": 4473,
      "Ġsparkles": 4474,
      "Ġattention": 4475,
      "ĠJames": 4476,
      "Ġjumps": 4477,
      "Ġport": 4478,
      "Ġoranges": 4479,
      "Ġpanic": 4480,
      "Ġmistake": 4481,
      "Ġslept": 4482,
      "Ġtherm": 4483,
      "Ġlugg": 4484,
      "Ġmissile": 4485,
      "ĠYour": 4486,
      "Ġfest": 4487,
      "Ġluggage": 4488,
      "First": 4489,
      "Ġreve": 4490,
      "ecause": 4491,
      "Ġalarm": 4492,
      "Ġsunset": 4493,
      "Ġsparkling": 4494,
      "Ġdeeper": 4495,
      "Ġbathe": 4496,
      "Ġdear": 4497,
      "ĠMay": 4498,
      "Ġranch": 4499,
      "Ġforgotten": 4500,
      "Ġenter": 4501,
      "Ġsurrender": 4502,
      "Ġbumped": 4503,
      "ison": 4504,
      "Ġringing": 4505,
      "Ġperfectly": 4506,
      "bles": 4507,
      "Ġquiz": 4508,
      "ionary": 4509,
      "Ġamazement": 4510,
      "Ġsupply": 4511,
      "ictionary": 4512,
      "Qu": 4513,
      "raged": 4514,
      "Ġraz": 4515,
      "Ġunhappy": 4516,
      "ometer": 4517,
      "Ġblouse": 4518,
      "Ġpoked": 4519,
      "Ġbookshe": 4520,
      "ĠUn": 4521,
      "Ġtornado": 4522,
      "Ġyucky": 4523,
      "Ġrooms": 4524,
      "Ġhardly": 4525,
      "Ġdisagreed": 4526,
      "time": 4527,
      "Ġwipe": 4528,
      "Ġdictionary": 4529,
      "Ġanchor": 4530,
      "aud": 4531,
      "Ġsqueezed": 4532,
      "Ġjewelry": 4533,
      "sit": 4534,
      "ising": 4535,
      "Ġcomf": 4536,
      "ĠMimi": 4537,
      "Ġresp": 4538,
      "Ġcham": 4539,
      "Ġpeered": 4540,
      "Ġspots": 4541,
      "Ġquietly": 4542,
      "Ġfreezer": 4543,
      "Ġthermometer": 4544,
      "Ġstro": 4545,
      "sters": 4546,
      "ĠRachel": 4547,
      "Ġprevent": 4548,
      "Ġjudge": 4549,
      "Ġmall": 4550,
      "Ġthankful": 4551,
      "Ġstrawberries": 4552,
      "Ġurge": 4553,
      "Ġnone": 4554,
      "Ġnews": 4555,
      "Ġagree": 4556,
      "Ġlie": 4557,
      "Ġboot": 4558,
      "Ġroot": 4559,
      "Ġneighborhood": 4560,
      "Ġmeasured": 4561,
      "Ġaut": 4562,
      "Ġshouldn": 4563,
      "Ġsubway": 4564,
      "Ġperfume": 4565,
      "Ġtutor": 4566,
      "Ġrazor": 4567,
      "Ġfloated": 4568,
      "Ġmarried": 4569,
      "Ġcourage": 4570,
      "Ġpoints": 4571,
      "Ġwaffle": 4572,
      "ampoo": 4573,
      "Ġmedal": 4574,
      "Ġimprove": 4575,
      "Ġvacation": 4576,
      "Ġbookshelf": 4577,
      "Would": 4578,
      "Ġeasily": 4579,
      "Ġairplane": 4580,
      "Ġlistening": 4581,
      "Peter": 4582,
      "ium": 4583,
      "utty": 4584,
      "Ġsnap": 4585,
      "Ġcub": 4586,
      "Ġheaded": 4587,
      "Ġyawned": 4588,
      "Ġapplaud": 4589,
      "do": 4590,
      "Ġmuffin": 4591,
      "Ġdiscuss": 4592,
      "unately": 4593,
      "Ġshampoo": 4594,
      "ĠMaggie": 4595,
      "Ġvehicle": 4596,
      "Ġchamber": 4597,
      "Ġwashing": 4598,
      "Ġmoves": 4599,
      "Ġfallen": 4600,
      "Ġtreasures": 4601,
      "Ġmystery": 4602,
      "Ġbeans": 4603,
      "Ġfestival": 4604,
      "Ġbuildings": 4605,
      "Ġremove": 4606,
      "Ġfuel": 4607,
      "bbie": 4608,
      "Ġdelay": 4609,
      "ĠBubb": 4610,
      "mend": 4611,
      "Ġdaisy": 4612,
      "inky": 4613,
      "Ġribbon": 4614,
      "Ġupstairs": 4615,
      "ommend": 4616,
      "igail": 4617,
      "Ġreward": 4618,
      "Ġbillboard": 4619,
      "seek": 4620,
      "ĠSpike": 4621,
      "Ġscooped": 4622,
      "'.": 4623,
      "Here": 4624,
      "Ġrecommend": 4625,
      "Ġhanger": 4626,
      "Ġpages": 4627,
      "Ġpaid": 4628,
      "Ġjogging": 4629,
      "Ġmodel": 4630,
      "ĠPenny": 4631,
      "Ġcontent": 4632,
      "Ġpatiently": 4633,
      "unday": 4634,
      "Ġpaints": 4635,
      "Ġsneeze": 4636,
      "Ġlanguage": 4637,
      "Ġbrus": 4638,
      "Ġchores": 4639,
      "olog": 4640,
      "Ġmustache": 4641,
      "Ġincre": 4642,
      "Yay": 4643,
      "Ġpalm": 4644,
      "ari": 4645,
      "Ġfasc": 4646,
      "Ġtruth": 4647,
      "Ġoffer": 4648,
      "Ġpuzzles": 4649,
      "Ġscattered": 4650,
      "Not": 4651,
      "Ġweap": 4652,
      "Ġlives": 4653,
      "Ġasht": 4654,
      "Ġwatered": 4655,
      "Ġseparate": 4656,
      "Ġrhy": 4657,
      "Ġtease": 4658,
      "Ġclaw": 4659,
      "ĠSunday": 4660,
      "Ġcreated": 4661,
      "Ġdoesn": 4662,
      "night": 4663,
      "ngth": 4664,
      "Ġgiven": 4665,
      "Ġapolog": 4666,
      "Ġcherry": 4667,
      "Ġpermit": 4668,
      "Because": 4669,
      "Ġplates": 4670,
      "ÅĵItÃ¢": 4671,
      "Ġashtray": 4672,
      "Ġmention": 4673,
      "issed": 4674,
      "Ġequ": 4675,
      "Ġstad": 4676,
      "Ġlic": 4677,
      "Ġstarts": 4678,
      "Ġmatches": 4679,
      "Ġstrength": 4680,
      "Ġstadium": 4681,
      "Ġglitter": 4682,
      "Ġtwigs": 4683,
      "Ġsniffed": 4684,
      "omob": 4685,
      "ides": 4686,
      "Ġelephants": 4687,
      "Ġsuff": 4688,
      "Ġdire": 4689,
      "Ġcrow": 4690,
      "Ġsparkle": 4691,
      "Ġcollecting": 4692,
      "Ġkissed": 4693,
      "asp": 4694,
      "Ġlaid": 4695,
      "Ġautomob": 4696,
      "idges": 4697,
      "Ġtrash": 4698,
      "Ġmay": 4699,
      "!\",": 4700,
      "Ġreplace": 4701,
      "Ġpaused": 4702,
      "Ġclearing": 4703,
      "Ġdestination": 4704,
      "Ġart": 4705,
      "Ġchecked": 4706,
      "Ġsticky": 4707,
      "Ġmountains": 4708,
      "Ġfascin": 4709,
      "Ġwhip": 4710,
      "Ġclimbs": 4711,
      "Ġmassage": 4712,
      "ĠCat": 4713,
      "Ġreverse": 4714,
      "Ġlicense": 4715,
      "Ġbridges": 4716,
      "thm": 4717,
      "Ġinvite": 4718,
      "rs": 4719,
      "Ġforgive": 4720,
      "Ġsausage": 4721,
      "Ġinvitation": 4722,
      "Ġdirect": 4723,
      "Ġhesit": 4724,
      "Ġfro": 4725,
      "Ġtug": 4726,
      "Ġtide": 4727,
      "Ġeither": 4728,
      "Ġdrain": 4729,
      "Ġprovide": 4730,
      "All": 4731,
      "Ġscore": 4732,
      "rise": 4733,
      "sity": 4734,
      "Ġwine": 4735,
      "Ġperched": 4736,
      "Ġgrabs": 4737,
      "Ġmarching": 4738,
      "Ġselling": 4739,
      "Ġshooting": 4740,
      "Ġlabel": 4741,
      "Ġmenu": 4742,
      "apping": 4743,
      "Ġrust": 4744,
      "ĠJoy": 4745,
      "Ġbathrobe": 4746,
      "Ġcrept": 4747,
      "Ġsocks": 4748,
      "Ġpoppy": 4749,
      "Ġornament": 4750,
      "Ġrhythm": 4751,
      "Ġbak": 4752,
      "Ġitem": 4753,
      "Johnny": 4754,
      "ĠZoe": 4755,
      "Ġencouraged": 4756,
      "Ġgrape": 4757,
      "ĠNutty": 4758,
      "Ġcomfy": 4759,
      "cus": 4760,
      "Ġmanage": 4761,
      "Ġsunrise": 4762,
      "Ġpulls": 4763,
      "Ġbelongs": 4764,
      "ĠSteve": 4765,
      "Ġapart": 4766,
      "Welcome": 4767,
      "house": 4768,
      "lvet": 4769,
      "Ġcandles": 4770,
      "Ġvelvet": 4771,
      "vice": 4772,
      "ÅĵNo": 4773,
      "Ġcakes": 4774,
      "Ġsneezed": 4775,
      "Ġrush": 4776,
      "Ġwooden": 4777,
      "Ġevent": 4778,
      "Ġscur": 4779,
      "Ġmarbles": 4780,
      "Ġguy": 4781,
      "ĠOllie": 4782,
      "Ġordered": 4783,
      "Ġalive": 4784,
      "Ġleak": 4785,
      "Ġvisited": 4786,
      "Mark": 4787,
      "walk": 4788,
      "amie": 4789,
      "Ġcontain": 4790,
      "Ġargue": 4791,
      "Ġstomach": 4792,
      "ĠSh": 4793,
      "Ġoper": 4794,
      "Ġuniversity": 4795,
      "aspoon": 4796,
      "Ġautomobile": 4797,
      "ĠTina": 4798,
      "Ġsport": 4799,
      "Ġteaspoon": 4800,
      "Ġunite": 4801,
      "Ġglowed": 4802,
      "Ġrestore": 4803,
      "Ġadmir": 4804,
      "Ġexercise": 4805,
      "hest": 4806,
      "ĠFirst": 4807,
      "Ġworms": 4808,
      "Before": 4809,
      "Ġvanished": 4810,
      "Ġtwisted": 4811,
      "Ġearthqu": 4812,
      "ĠKatie": 4813,
      "Ġgrowled": 4814,
      "Ġignore": 4815,
      "Ġclaws": 4816,
      "Ġx": 4817,
      "Ġcrash": 4818,
      "Ġcrossed": 4819,
      "Ġtremble": 4820,
      "Ġolive": 4821,
      "Ġskill": 4822,
      "Ġsunlight": 4823,
      "Ġhurric": 4824,
      "Ġsidewalk": 4825,
      "Ġobserve": 4826,
      "Ġlily": 4827,
      "Ġbeside": 4828,
      "ĠWho": 4829,
      "Ġnicely": 4830,
      "ĠPoppy": 4831,
      "ipment": 4832,
      "Ġbarks": 4833,
      "Ġinclud": 4834,
      "Ġinstr": 4835,
      "right": 4836,
      "fortunately": 4837,
      "Ġequipment": 4838,
      "tled": 4839,
      "Ġearthquake": 4840,
      "Ġfought": 4841,
      "Ġnation": 4842,
      "Ġhurricane": 4843,
      "Ġsty": 4844,
      "ĠRuby": 4845,
      "Ġshopping": 4846,
      "Is": 4847,
      "Ġtracks": 4848,
      "Ġscratch": 4849,
      "looking": 4850,
      "Ġcartoons": 4851,
      "umble": 4852,
      "ĠAre": 4853,
      "Ġflav": 4854,
      "Ġvalue": 4855,
      "ĠMilly": 4856,
      "Ġcollection": 4857,
      "Ġsafari": 4858,
      "Ġgain": 4859,
      "Ġgrin": 4860,
      "ĠRo": 4861,
      "Ġrecei": 4862,
      "Ġweapon": 4863,
      "Ġeaten": 4864,
      "Ġoutdo": 4865,
      "Ġtour": 4866,
      "ero": 4867,
      "ups": 4868,
      "Ġjewels": 4869,
      "Ġstruggled": 4870,
      "nies": 4871,
      "ĠMat": 4872,
      "Ġideas": 4873,
      "Ġwobb": 4874,
      "Ġsurrounded": 4875,
      "Ġchance": 4876,
      "Ġskipping": 4877,
      "Ġplanted": 4878,
      "Ġuniverse": 4879,
      "ecture": 4880,
      "Ġjazz": 4881,
      "avid": 4882,
      "Ġbalan": 4883,
      "Ġburning": 4884,
      "Ġbricks": 4885,
      "Luckily": 4886,
      "Ġwag": 4887,
      "lest": 4888,
      "Ġyield": 4889,
      "Ġshouts": 4890,
      "Ġended": 4891,
      "Ġparts": 4892,
      "ĠChirp": 4893,
      "Ġtoe": 4894,
      "Ġwarmth": 4895,
      "iers": 4896,
      "icing": 4897,
      "Ġoperation": 4898,
      "Tweet": 4899,
      "neath": 4900,
      "Ġlecture": 4901,
      "Ġshed": 4902,
      "Ġfollowing": 4903,
      "Ġargued": 4904,
      "Ġpatterns": 4905,
      "Ġglo": 4906,
      "Ġdare": 4907,
      "Jake": 4908,
      "Ġheat": 4909,
      "Ġnavy": 4910,
      "ĠIÃ¢": 4911,
      "Ġtrade": 4912,
      "Ġbuckle": 4913,
      "Ġexamined": 4914,
      "Ġracing": 4915,
      "atched": 4916,
      "Ġfollows": 4917,
      "Ġpulling": 4918,
      "ĠSu": 4919,
      "ĠLiz": 4920,
      "Ġstrip": 4921,
      "Ġstripes": 4922,
      "Ready": 4923,
      "Ġreceived": 4924,
      "ĠV": 4925,
      "Ġbang": 4926,
      "Ġluck": 4927,
      "Ġemer": 4928,
      "icer": 4929,
      "âĤ¬.": 4930,
      "Ġmeowed": 4931,
      "Ġrained": 4932,
      "Emily": 4933,
      "ĠAbigail": 4934,
      "ĠSnowy": 4935,
      "Susie": 4936,
      "ĠEl": 4937,
      "ĠFo": 4938,
      "Ġsteel": 4939,
      "Ġcrunch": 4940,
      "Ġhappens": 4941,
      "Ġmeasuring": 4942,
      "Ġbrick": 4943,
      "loe": 4944,
      "xy": 4945,
      "ĠThank": 4946,
      "Ġsoldiers": 4947,
      "Ġblueberry": 4948,
      "Ġleather": 4949,
      "ship": 4950,
      "Ġpunish": 4951,
      "Fl": 4952,
      "Ok": 4953,
      "ĠFloppy": 4954,
      "Ġruined": 4955,
      "Ġpillows": 4956,
      "Ġstops": 4957,
      "Ġoutdoors": 4958,
      "Lisa": 4959,
      "ah": 4960,
      "zag": 4961,
      "Ġcopper": 4962,
      "Ġdrinking": 4963,
      "Ġregret": 4964,
      "Ġweren": 4965,
      "ĠLater": 4966,
      "Ġtomatoes": 4967,
      "Ġoats": 4968,
      "amb": 4969,
      "Ġwre": 4970,
      "Ġwaste": 4971,
      "ishing": 4972,
      "Ġbeneath": 4973,
      "Ġpupil": 4974,
      "mother": 4975,
      "ĠJe": 4976,
      "Ġawe": 4977,
      "Ġdestroyed": 4978,
      "Ġmineral": 4979,
      "With": 4980,
      "Ġsi": 4981,
      "Ġwaist": 4982,
      "etch": 4983,
      "Ġspike": 4984,
      "Ġadvice": 4985,
      "Ġzipped": 4986,
      "ĠRob": 4987,
      "Ġcutting": 4988,
      "Ġadmiring": 4989,
      "Ex": 4990,
      "Ġslice": 4991,
      "Ġbudge": 4992,
      "Ġzig": 4993,
      "Ġwaffles": 4994,
      "Ġjail": 4995,
      "Ġunderneath": 4996,
      "Ġfascinated": 4997,
      "ĠKing": 4998,
      "Ġbelieved": 4999,
      "Ġgloves": 5000,
      "Ġpies": 5001,
      "Ġsnapped": 5002,
      "Ġsip": 5003,
      "ites": 5004,
      "Ġbeat": 5005,
      "Ġpoison": 5006,
      "Ġknows": 5007,
      "Ġseats": 5008,
      "annah": 5009,
      "ĠMiss": 5010,
      "ÅĵHello": 5011,
      "Ġkindly": 5012,
      "Ġpotatoes": 5013,
      "allen": 5014,
      "Ġsew": 5015,
      "Ġchallen": 5016,
      "Ġrelaxed": 5017,
      "son": 5018,
      "Ġhers": 5019,
      "Ġweighed": 5020,
      "Ġfolded": 5021,
      "Ġchirped": 5022,
      "ĠGive": 5023,
      "ĠRemy": 5024,
      "Ġbare": 5025,
      "ssible": 5026,
      "Ġmem": 5027,
      "Ġbrain": 5028,
      "Ġkindness": 5029,
      "Ġspoons": 5030,
      "Ġtwirling": 5031,
      "eed": 5032,
      "ience": 5033,
      "nie": 5034,
      "Ġflies": 5035,
      "Ġfiref": 5036,
      "Ġmarkers": 5037,
      "Ġweeks": 5038,
      "ĠBefore": 5039,
      "ÅĵCan": 5040,
      "Ġsettled": 5041,
      "Ġturning": 5042,
      "Ġspending": 5043,
      "Ġtrusted": 5044,
      "Ġrequest": 5045,
      "ives": 5046,
      "antly": 5047,
      "Ġstirring": 5048,
      "Ġpedal": 5049,
      "ĠBubbles": 5050,
      "wo": 5051,
      "Ġcheek": 5052,
      "Ġdisappear": 5053,
      "Ġwhistled": 5054,
      "Ġdemanded": 5055,
      "ding": 5056,
      "ĠQu": 5057,
      "Ġmuddy": 5058,
      "Ġsoak": 5059,
      "Ġsits": 5060,
      "Ġshocked": 5061,
      "Ġspaceship": 5062,
      "Ġaccepted": 5063,
      "nes": 5064,
      "ays": 5065,
      "lled": 5066,
      "Ġflood": 5067,
      "Ġneighbourhood": 5068,
      "Ġtucked": 5069,
      "ĠHel": 5070,
      "Ġbeg": 5071,
      "Ġgirls": 5072,
      "umes": 5073,
      "Ġhated": 5074,
      "\",": 5075,
      "Ġwanting": 5076,
      "ĠAn": 5077,
      "Ġgathering": 5078,
      "Ġrefre": 5079,
      "Ġpeanuts": 5080,
      "Ġvent": 5081,
      "Ġslip": 5082,
      "Ġmonsters": 5083,
      "Ġbreaks": 5084,
      "Ġshakes": 5085,
      "uke": 5086,
      "Ġtore": 5087,
      "orting": 5088,
      "Ġowned": 5089,
      "Ġdreaming": 5090,
      "laire": 5091,
      "ĠHowever": 5092,
      "Kitty": 5093,
      "ĠTiny": 5094,
      "Ġsore": 5095,
      "Ġisn": 5096,
      "ĠDog": 5097,
      "Ġchef": 5098,
      "Ġsteep": 5099,
      "Ġwondering": 5100,
      "Ġcurled": 5101,
      "Ġcostumes": 5102,
      "'ve": 5103,
      "Ġpitch": 5104,
      "allow": 5105,
      "Ġprinter": 5106,
      "Ġsetting": 5107,
      "Ġsnowball": 5108,
      "Ġrules": 5109,
      "Ġsuffer": 5110,
      "Ġshot": 5111,
      "ĠMe": 5112,
      "ĠFro": 5113,
      "izard": 5114,
      "Ġsettle": 5115,
      "Ġfixing": 5116,
      "ĠBeth": 5117,
      "Ġburied": 5118,
      "Ġpartic": 5119,
      "Ġattached": 5120,
      "Teddy": 5121,
      "Ġow": 5122,
      "ĠIs": 5123,
      "Ġfash": 5124,
      "Ġthrows": 5125,
      "Ġreceive": 5126,
      "Ġbrushes": 5127,
      "Al": 5128,
      "Th": 5129,
      "Ġmyself": 5130,
      "Ġbouncy": 5131,
      "Ġpiles": 5132,
      "Ġmelted": 5133,
      "uesday": 5134,
      "ĠChirpy": 5135,
      "..": 5136,
      "Ġknelt": 5137,
      "Ġprop": 5138,
      "ffic": 5139,
      "Ġnails": 5140,
      "Ouch": 5141,
      "Ġwizard": 5142,
      "abel": 5143,
      "Ġunderground": 5144,
      "ĠCo": 5145,
      "Ġsliding": 5146,
      "Ġprice": 5147,
      "!'": 5148,
      "omas": 5149,
      "Ġlaught": 5150,
      "usan": 5151,
      "ÅĵYou": 5152,
      "Ġmovies": 5153,
      "Ġpadd": 5154,
      "Ġimage": 5155,
      "Ġdrinks": 5156,
      "Ġmailman": 5157,
      "Ġloaded": 5158,
      "Ġsprinkles": 5159,
      "Ġrepeat": 5160,
      "ĠLuna": 5161,
      "Ġdoggy": 5162,
      "Joey": 5163,
      "Ġzooming": 5164,
      "Ġparked": 5165,
      "Ġpancakes": 5166,
      "ĠOl": 5167,
      "Ġgrandmother": 5168,
      "Andy": 5169,
      "Dave": 5170,
      "use": 5171,
      "Ġtip": 5172,
      "Ġparticular": 5173,
      "sing": 5174,
      "ĠTuesday": 5175,
      "Ġlaughter": 5176,
      "indy": 5177,
      "Ġbrand": 5178,
      "iggy": 5179,
      "Ġsupplies": 5180,
      "ĠBig": 5181,
      "Ġbrings": 5182,
      "Ġappear": 5183,
      "Ġtraffic": 5184,
      "Ġurged": 5185,
      "Jen": 5186,
      "ĠJan": 5187,
      "ĠAnne": 5188,
      "Ġcamping": 5189,
      "Ġmentioned": 5190,
      "Sorry": 5191,
      "men": 5192,
      "Ġalright": 5193,
      "Ġpretti": 5194,
      "Ġfashion": 5195,
      "Ġprettiest": 5196,
      "Ġtong": 5197,
      "omes": 5198,
      "ulu": 5199,
      "osity": 5200,
      "Ġfetch": 5201,
      "ott": 5202,
      "Ġprayed": 5203,
      "Ġskills": 5204,
      "Ġzigzag": 5205,
      "aid": 5206,
      "aring": 5207,
      "Ġrul": 5208,
      "Ġmoments": 5209,
      "Ġbarely": 5210,
      "Ġinch": 5211,
      "Ġplays": 5212,
      "Ġrang": 5213,
      "Ġchoice": 5214,
      "Ġstudied": 5215,
      "Ġstyle": 5216,
      "Ġcrunchy": 5217,
      "Ġduring": 5218,
      "Their": 5219,
      "Ġeveryday": 5220,
      "Ġwrites": 5221,
      "Ġdraws": 5222,
      "Ġdisturbed": 5223,
      "Ow": 5224,
      "Ġstair": 5225,
      "Ġpastel": 5226,
      "Ġcurly": 5227,
      "Ġburrow": 5228,
      "Ġprune": 5229,
      "Ġrevealed": 5230,
      "terday": 5231,
      "Ġdrops": 5232,
      "ĠChr": 5233,
      "ÅĵIÃ¢": 5234,
      "Ġchewed": 5235,
      "George": 5236,
      "va": 5237,
      "Ġmitten": 5238,
      "Ġbend": 5239,
      "Ġweb": 5240,
      "Ġdrag": 5241,
      "Ġhurried": 5242,
      "Ġvillag": 5243,
      "ales": 5244,
      "hello": 5245,
      "Ġsings": 5246,
      "ednes": 5247,
      "Ġstitch": 5248,
      "Ġarea": 5249,
      "Ġmeow": 5250,
      "Ġjogged": 5251,
      "Ġbuckets": 5252,
      "Ġruler": 5253,
      "ednesday": 5254,
      "Ġweight": 5255,
      "Ġfab": 5256,
      "ĠLucky": 5257,
      "ĠSpark": 5258,
      "Ġnetwork": 5259,
      "Ġstretching": 5260,
      "Ġacorns": 5261,
      "Ġwhistling": 5262,
      "Ġbrushed": 5263,
      "Ġladyb": 5264,
      "Ġraised": 5265,
      "Ġcircus": 5266,
      "Ġfireworks": 5267,
      "Sh": 5268,
      "mm": 5269,
      "Ġmixing": 5270,
      "Ġwreck": 5271,
      "Ġbones": 5272,
      "Ġfed": 5273,
      "Ġintroduce": 5274,
      "ĠWednesday": 5275,
      "Ġsisters": 5276,
      "act": 5277,
      "Ġscold": 5278,
      "ĠFrank": 5279,
      "Ġstruck": 5280,
      "ÅĵLook": 5281,
      "Ġtem": 5282,
      "Ġgrowl": 5283,
      "Ġtongue": 5284,
      "dam": 5285,
      "edding": 5286,
      "ĠHoppy": 5287,
      "Ġitems": 5288,
      "ik": 5289,
      "Ġbunch": 5290,
      "Ġlines": 5291,
      "Ġmittens": 5292,
      "Ġcared": 5293,
      "Ġswims": 5294,
      "Ġallow": 5295,
      "Ġcrashed": 5296,
      "Ġusual": 5297,
      "Ġhighest": 5298,
      "Ġtune": 5299,
      "ÅĵThatÃ¢": 5300,
      "Ġfabric": 5301,
      "Ġbun": 5302,
      "Ġeast": 5303,
      "ica": 5304,
      "ĠJamie": 5305,
      "Ġpeaches": 5306,
      "ler": 5307,
      "uing": 5308,
      "¿½": 5309,
      "ï¿½": 5310,
      "Ġmice": 5311,
      "Ġmater": 5312,
      "inda": 5313,
      "Ġshoulders": 5314,
      "Ġemergen": 5315,
      "Ġmateri": 5316,
      "mare": 5317,
      "Ġpupp": 5318,
      "ĠPr": 5319,
      "Ġprinted": 5320,
      "ĠGod": 5321,
      "ĠSuzy": 5322,
      "ĠHere": 5323,
      "ĠPip": 5324,
      "Ġlandscape": 5325,
      "Ġimagination": 5326,
      "Ġcountryside": 5327,
      "Ġpur": 5328,
      "Ġheads": 5329,
      "Ġrecognized": 5330,
      "ha": 5331,
      "ody": 5332,
      "tory": 5333,
      "Ġsway": 5334,
      "Ġhistory": 5335,
      "ĠDavid": 5336,
      "Ġsigns": 5337,
      "Ġfreeze": 5338,
      "ĠBetty": 5339,
      "fit": 5340,
      "ities": 5341,
      "ĠHop": 5342,
      "essed": 5343,
      "Ġoutfit": 5344,
      "Ġcape": 5345,
      "Ġwherever": 5346,
      "Ġburned": 5347,
      "Mittens": 5348,
      "ayla": 5349,
      "Ġeagle": 5350,
      "Ġsights": 5351,
      "Ġshivering": 5352,
      "Ġgazed": 5353,
      "Ġvillagers": 5354,
      "Bobby": 5355,
      "ĠJosh": 5356,
      "Ġnightmare": 5357,
      "ĠCarl": 5358,
      "Ġlemons": 5359,
      "Ġexper": 5360,
      "Ġhomes": 5361,
      "immer": 5362,
      "ĠSunny": 5363,
      "Ġcaut": 5364,
      "Ġflap": 5365,
      "Ġbreathe": 5366,
      "Ġcelebrated": 5367,
      "Ġdinosaurs": 5368,
      "Ġshadows": 5369,
      "Ġreaches": 5370,
      "Ġhappier": 5371,
      "Ġspill": 5372,
      "ĠChloe": 5373,
      "Ġdried": 5374,
      "iously": 5375,
      "ĠSomeone": 5376,
      "Ġrides": 5377,
      "Ġcompetition": 5378,
      "Ġventured": 5379,
      "ĠTilly": 5380,
      "ĠitÃ¢": 5381,
      "Ġremain": 5382,
      "xture": 5383,
      "Ġlick": 5384,
      "Ġpoking": 5385,
      "Ġstrings": 5386,
      "Ġroads": 5387,
      "Ġemergency": 5388,
      "rr": 5389,
      "Ġnod": 5390,
      "Ġslapped": 5391,
      "Ġcatching": 5392,
      "Ġstaring": 5393,
      "Ġmission": 5394,
      "ĠJulie": 5395,
      "shing": 5396,
      "Ġtugged": 5397,
      "Ġcor": 5398,
      "ĠCar": 5399,
      "Ġmuscles": 5400,
      "Ġsecrets": 5401,
      "Ġactually": 5402,
      "Ġtexture": 5403,
      "Ġlemonade": 5404,
      "Ġgrinned": 5405,
      "Ġbunnies": 5406,
      "Mar": 5407,
      "Sometimes": 5408,
      "Ġdesert": 5409,
      "Ġpouring": 5410,
      "Ġgiggling": 5411,
      "Ġpears": 5412,
      "Ġkneeled": 5413,
      "ĠUncle": 5414,
      "Yum": 5415,
      "die": 5416,
      "ex": 5417,
      "Ġshelves": 5418,
      "Ġkeys": 5419,
      "Ġintroduc": 5420,
      "zing": 5421,
      "Ġwedding": 5422,
      "Ġlined": 5423,
      "ÅĵWhy": 5424,
      "ÅĵWhatÃ¢": 5425,
      "Henry": 5426,
      "uable": 5427,
      "xygen": 5428,
      "Bella": 5429,
      "Ġactiv": 5430,
      "Ġserved": 5431,
      "Yuck": 5432,
      "ĠSusan": 5433,
      "Ġladybug": 5434,
      "Paul": 5435,
      "ety": 5436,
      "riage": 5437,
      "ÅĵDon": 5438,
      "Ġmachines": 5439,
      "Ġtwinkling": 5440,
      "Mike": 5441,
      "Maggie": 5442,
      "Ġwid": 5443,
      "Ġres": 5444,
      "Ġrocked": 5445,
      "Ġpacking": 5446,
      "ggy": 5447,
      "ĠItÃ¢": 5448,
      "Ġleap": 5449,
      "Ġvaluable": 5450,
      "Ġscurried": 5451,
      "Ġti": 5452,
      "Ġswoop": 5453,
      "Ġcuriosity": 5454,
      "Ġpots": 5455,
      "Ġseason": 5456,
      "osed": 5457,
      "ĠOK": 5458,
      "Ġquack": 5459,
      "Ġsurface": 5460,
      "Ro": 5461,
      "imy": 5462,
      "Ġseag": 5463,
      "Ġthrilled": 5464,
      "Ġvisiting": 5465,
      "Ġpracticing": 5466,
      "ĠOut": 5467,
      "Ġwandering": 5468,
      "Ġapologized": 5469,
      "Ġbegin": 5470,
      "igi": 5471,
      "ĠMany": 5472,
      "Ġfoods": 5473,
      "Ġcoloured": 5474,
      "Ġpassing": 5475,
      "Ġdusty": 5476,
      "Ġguys": 5477,
      "Fluffy": 5478,
      "Ġyouth": 5479,
      "aded": 5480,
      "Ġsurprises": 5481,
      "Ġsweets": 5482,
      "However": 5483,
      "Ġsafety": 5484,
      "Ġribbons": 5485,
      "ĠMatt": 5486,
      "Ġsides": 5487,
      "int": 5488,
      "Ġoxygen": 5489,
      "Ġcalls": 5490,
      "Ġtickets": 5491,
      "Ġblooming": 5492,
      "Ġcrowd": 5493,
      "cited": 5494,
      "oed": 5495,
      "ĠSad": 5496,
      "Ġsoared": 5497,
      "Ġloose": 5498,
      "ĠLulu": 5499,
      "Ġsnail": 5500,
      "ĠZoom": 5501,
      "Ġherbs": 5502,
      "Ġrecognize": 5503,
      "ĠOnce": 5504,
      "Ġroots": 5505,
      "Ġshined": 5506,
      "Ġsticking": 5507,
      "Ġsoaring": 5508,
      "Ġseagull": 5509,
      "Did": 5510,
      "ux": 5511,
      "Ġfara": 5512,
      "ĠLetÃ¢": 5513,
      "Ġdoctors": 5514,
      "Ġbaked": 5515,
      "uxu": 5516,
      "Ġfaraway": 5517,
      "Ġhowever": 5518,
      "gers": 5519,
      "Ġplanets": 5520,
      "Ġanswers": 5521,
      "Ġstamps": 5522,
      "Ġdisagree": 5523,
      "See": 5524,
      "oved": 5525,
      "Ġyelling": 5526,
      "Ġkicking": 5527,
      "Ġincrease": 5528,
      "Ġexit": 5529,
      "ÅĵWe": 5530,
      "Ġhurting": 5531,
      "Ġstorekeeper": 5532,
      "Ġchallenge": 5533,
      "Ġintroduced": 5534,
      "Ġwest": 5535,
      "oming": 5536,
      "Ġwarning": 5537,
      "Ġcontest": 5538,
      "Ġbottles": 5539,
      "Ġgifts": 5540,
      "Ġspraying": 5541,
      "uzie": 5542,
      "Pete": 5543,
      "Ġbank": 5544,
      "Ġhate": 5545,
      "Ġlamb": 5546,
      "ĠNot": 5547,
      "Ġflags": 5548,
      "Ġrubbing": 5549,
      "ishes": 5550,
      "ÅĵOh": 5551,
      "Ġusually": 5552,
      "Ġpinched": 5553,
      "Ġsneaked": 5554,
      "ĠAbby": 5555,
      "Ġhelper": 5556,
      "Ġgotten": 5557,
      "ĠRabbit": 5558,
      "Ġbowed": 5559,
      "Ġscratched": 5560,
      "ĠPipp": 5561,
      "aky": 5562,
      "Ġguessed": 5563,
      "Ġpockets": 5564,
      "izzie": 5565,
      "Ġstrike": 5566,
      "Ġshivered": 5567,
      "Ġwiggled": 5568,
      "Un": 5569,
      "ais": 5570,
      "These": 5571,
      "Ġplanned": 5572,
      "ĠJenna": 5573,
      "Ġprepared": 5574,
      "Ġsausages": 5575,
      "Ġcautiously": 5576,
      "Ġluxu": 5577,
      "ora": 5578,
      "essie": 5579,
      "Ġinterested": 5580,
      "Ġchewing": 5581,
      "Ġscolded": 5582,
      "Ġsince": 5583,
      "ĠLou": 5584,
      "Grace": 5585,
      "Ġresult": 5586,
      "mel": 5587,
      "hell": 5588,
      "ĠSee": 5589,
      "ĠBir": 5590,
      "Ġtallest": 5591,
      "Ġzero": 5592,
      "ĠClaire": 5593,
      "Ġarrive": 5594,
      "ĠThomas": 5595,
      "?\",": 5596,
      "Ġwhatever": 5597,
      "Ġslimy": 5598,
      "Ġsinger": 5599,
      "Ġrested": 5600,
      "Ġsuitcase": 5601,
      "Ġcuddle": 5602,
      "aster": 5603,
      "rig": 5604,
      "Ġsimp": 5605,
      "icorn": 5606,
      "Ġunicorn": 5607,
      "Ġours": 5608,
      "Ġsorted": 5609,
      "Ġobserved": 5610,
      "Ġlips": 5611,
      "Ġkeeper": 5612,
      "Ġcreation": 5613,
      "Ġsupposed": 5614,
      "Ġstruggle": 5615,
      "ĠJeff": 5616,
      "Ella": 5617,
      "Ġ1": 5618,
      "Ġdared": 5619,
      "Ġstare": 5620,
      "Ġexact": 5621,
      "Ġago": 5622,
      "Ġwaiter": 5623,
      "Ġdecorated": 5624,
      "Ġhorns": 5625,
      "Ġolives": 5626,
      "Ġdragons": 5627,
      "Ġwritten": 5628,
      "Ġpencils": 5629,
      "Ġtraveled": 5630,
      "Ġrelease": 5631,
      "ĠJessie": 5632,
      "Ġscales": 5633,
      "ÅĵMommy": 5634,
      "Ġseashell": 5635,
      "Cl": 5636,
      "Lola": 5637,
      "Ġsorting": 5638,
      "Ġdent": 5639,
      "Ġworse": 5640,
      "Ġchips": 5641,
      "Ġofficer": 5642,
      "Ġrocking": 5643,
      "boat": 5644,
      "Ġstartled": 5645,
      "Ġflat": 5646,
      "Ġworks": 5647,
      "thank": 5648,
      "Ġstudying": 5649,
      "exp": 5650,
      "vin": 5651,
      "Ġbumpy": 5652,
      "ining": 5653,
      "icky": 5654,
      "Ġsticker": 5655,
      "Ġfart": 5656,
      "ĠJon": 5657,
      "Ġvoices": 5658,
      "lowly": 5659,
      "ĠHelp": 5660,
      "Ġproperly": 5661,
      "Ġmarriage": 5662,
      "Ġspiders": 5663,
      "Ġroaring": 5664,
      "expected": 5665,
      "Ġcott": 5666,
      "ĠLuke": 5667,
      "ashed": 5668,
      "izing": 5669,
      "Ġmatched": 5670,
      "Ġneighbors": 5671,
      "Ġpowers": 5672,
      "Ġgroceries": 5673,
      "Sophie": 5674,
      "chie": 5675,
      "Ġblink": 5676,
      "ason": 5677,
      "Ġunexpected": 5678,
      "ĠKe": 5679,
      "brush": 5680,
      "Ġcrabs": 5681,
      "Ġmistakes": 5682,
      "Charlie": 5683,
      "Ġwaits": 5684,
      "ission": 5685,
      "Ġproject": 5686,
      "Ġmiles": 5687,
      "ophia": 5688,
      "Ġpermission": 5689,
      "ĠHannah": 5690,
      "une": 5691,
      "Ġswirl": 5692,
      "Ġkeeping": 5693,
      "Ġconf": 5694,
      "Ġpolishing": 5695,
      "Ġremained": 5696,
      "Ġguns": 5697,
      "Ġdolphins": 5698,
      "Ġunlocked": 5699,
      "Fr": 5700,
      "Ġhi": 5701,
      "Ġheav": 5702,
      "Ġripped": 5703,
      "ĠBuzzy": 5704,
      "Ġfeelings": 5705,
      "Ġcolored": 5706,
      "Ġteasing": 5707,
      "Ġtickle": 5708,
      "Ġmuffins": 5709,
      "Ġwagging": 5710,
      "Ellie": 5711,
      "Fred": 5712,
      "ivery": 5713,
      "Ġty": 5714,
      "Ġgreet": 5715,
      "Ġworkers": 5716,
      "ĠDoggy": 5717,
      "rigued": 5718,
      "Danny": 5719,
      "ĠTwo": 5720,
      "rious": 5721,
      "Ġshock": 5722,
      "Ġpeel": 5723,
      "aped": 5724,
      "Ġsnuck": 5725,
      "Ġpretends": 5726,
      "Ġmatching": 5727,
      "Ġpeeking": 5728,
      "ĠQuack": 5729,
      "Ġsnowballs": 5730,
      "zen": 5731,
      "Ġheel": 5732,
      "Afterwards": 5733,
      "Ġgrowling": 5734,
      "Ġhearts": 5735,
      "Grandpa": 5736,
      "Ġpebbles": 5737,
      "Ġpunished": 5738,
      "Ġexactly": 5739,
      "Alex": 5740,
      "nger": 5741,
      "Ġsix": 5742,
      "lee": 5743,
      "ira": 5744,
      "Ġyounger": 5745,
      "Ġproblems": 5746,
      "Ġbloomed": 5747,
      "Ġcurtains": 5748,
      "ĠPrince": 5749,
      "Ġswooped": 5750,
      "Ġluxury": 5751,
      "Ġdentist": 5752,
      "Ġwisdom": 5753,
      "Ġincluded": 5754,
      "Ġrefreshed": 5755,
      "Ġrele": 5756,
      "ĠLizzy": 5757,
      "Ġopin": 5758,
      "Ġwond": 5759,
      "coat": 5760,
      "Ġresting": 5761,
      "oline": 5762,
      "Ġitchy": 5763,
      "Ġbalancing": 5764,
      "Ah": 5765,
      "aa": 5766,
      "kins": 5767,
      "lier": 5768,
      "ubbed": 5769,
      "yond": 5770,
      "Ġbeyond": 5771,
      "ĠGigi": 5772,
      "Ġtouching": 5773,
      "Ġtastes": 5774,
      "Ġsandcastles": 5775,
      "Ġfuzzy": 5776,
      "ĠDolly": 5777,
      "Ġstole": 5778,
      "acob": 5779,
      "Ġsilence": 5780,
      "Ġcomforted": 5781,
      "James": 5782,
      "Ġmes": 5783,
      "Ġlogs": 5784,
      "Ġdelivery": 5785,
      "Ġtickled": 5786,
      "Ġtrembling": 5787,
      "Ġfluttering": 5788,
      "ÅĵDonÃ¢": 5789,
      "Ġmesmer": 5790,
      "ĠTess": 5791,
      "Ġnibb": 5792,
      "ĠAdam": 5793,
      "Ġfrost": 5794,
      "Ġcrumb": 5795,
      "Ġforgave": 5796,
      "Ġencourage": 5797,
      "Ġfrozen": 5798,
      "Ġbakery": 5799,
      "Ġdownstairs": 5800,
      "Ġprincesses": 5801,
      "Ġgaze": 5802,
      "Ġdirection": 5803,
      "Ġfirefight": 5804,
      "Fin": 5805,
      "Harry": 5806,
      "Ġtonight": 5807,
      "ĠLinda": 5808,
      "ĠMomo": 5809,
      "Ġraincoat": 5810,
      "Ġowners": 5811,
      "Ġmotion": 5812,
      "Ġsquealed": 5813,
      "ilo": 5814,
      "Ġnaps": 5815,
      "Ġinviting": 5816,
      "Ġprints": 5817,
      "Ġvideos": 5818,
      "iki": 5819,
      "ĠGr": 5820,
      "Ġpaintings": 5821,
      "Ġpedals": 5822,
      "Sandy": 5823,
      "rance": 5824,
      "Ġcent": 5825,
      "Ġeight": 5826,
      "abies": 5827,
      "Ġpossible": 5828,
      "Ġreaching": 5829,
      "Ġlands": 5830,
      "Ġacted": 5831,
      "Ġsiren": 5832,
      "Ġpra": 5833,
      "Ġbeamed": 5834,
      "Ġrealize": 5835,
      "Ġtravelled": 5836,
      "Ġapplauded": 5837,
      "go": 5838,
      "Ġmane": 5839,
      "Ġsomebody": 5840,
      "Ġeasier": 5841,
      "Ġrecorded": 5842,
      "Annie": 5843,
      "lling": 5844,
      "Ġsoaked": 5845,
      "Ġwarn": 5846,
      "Days": 5847,
      "Ġthreat": 5848,
      "ĠMad": 5849,
      "ĠcanÃ¢": 5850,
      "Ġgrassy": 5851,
      "Ġsailboat": 5852,
      "Ġguest": 5853,
      "affes": 5854,
      "Ġfroze": 5855,
      "iar": 5856,
      "ena": 5857,
      "Ġrumble": 5858,
      "ĠMel": 5859,
      "Ġflames": 5860,
      "Ġperfor": 5861,
      "Ġknights": 5862,
      "Ġfluttered": 5863,
      "Ġpaddled": 5864,
      "fied": 5865,
      "Ġwags": 5866,
      "Ġsadness": 5867,
      "Ġsquish": 5868,
      "Ġmixture": 5869,
      "Ġradishes": 5870,
      "Ġlearnt": 5871,
      "lowers": 5872,
      "Ġflavor": 5873,
      "ana": 5874,
      "ĠJazz": 5875,
      "ĠLuckily": 5876,
      "Ġpause": 5877,
      "Ġpearl": 5878,
      "Ġfamil": 5879,
      "member": 5880,
      "Ġseesaw": 5881,
      "Ġearlier": 5882,
      "Ġpans": 5883,
      "Ġseeker": 5884,
      "Ġleader": 5885,
      "Ġgiraffes": 5886,
      "Ġinstruct": 5887,
      "mas": 5888,
      "Ġadult": 5889,
      "Ġfigured": 5890,
      "Ġbabies": 5891,
      "Ġgained": 5892,
      "aty": 5893,
      "igers": 5894,
      "Ġvict": 5895,
      "Ġwindy": 5896,
      "Ġwrist": 5897,
      "Ġblocking": 5898,
      "Ġworker": 5899,
      "Ġdiscovery": 5900,
      "years": 5901,
      "Ġbaker": 5902,
      "Ġtipt": 5903,
      "Mrs": 5904,
      "Ġmemb": 5905,
      "Ġtalent": 5906,
      "Ġlollipops": 5907,
      "Ġpoems": 5908,
      "Ġprunes": 5909,
      "immering": 5910,
      "Ġreleased": 5911,
      "ĠMon": 5912,
      "ĠLee": 5913,
      "aura": 5914,
      "ĠPandy": 5915,
      "Ġrainbows": 5916,
      "Ġreply": 5917,
      "Millie": 5918,
      "eke": 5919,
      "Ġbother": 5920,
      "ĠSuzie": 5921,
      "Ġsting": 5922,
      "Ġann": 5923,
      "Ġchat": 5924,
      "ÅĵThis": 5925,
      "ĠJohnson": 5926,
      "ĠFinn": 5927,
      "Ġphotos": 5928,
      "ĠChrist": 5929,
      "Ġfrosting": 5930,
      "Bun": 5931,
      "Mr": 5932,
      "Nina": 5933,
      "Ġast": 5934,
      "Ġboo": 5935,
      "Ġbars": 5936,
      "Ġdrums": 5937,
      "Ġscrubbed": 5938,
      "Ġcuddled": 5939,
      "Ġsucceeded": 5940,
      "Ġcubes": 5941,
      "Ġdipped": 5942,
      "Ġthro": 5943,
      "Ġhomework": 5944,
      "Ġcones": 5945,
      "Ġsource": 5946,
      "Ġtigers": 5947,
      "ÅĵHi": 5948,
      "ĠCindy": 5949,
      "ĠKayla": 5950,
      "Ġpastries": 5951,
      "Ġrockets": 5952,
      "Ġhallway": 5953,
      "Ġsneaky": 5954,
      "Ġthroat": 5955,
      "?'": 5956,
      "indr": 5957,
      "Ġcast": 5958,
      "Ġintrigued": 5959,
      "angled": 5960,
      "Ġpointy": 5961,
      "Ġpetted": 5962,
      "Ġraindr": 5963,
      "Ġmarks": 5964,
      "Ġbringing": 5965,
      "Ġentire": 5966,
      "Ġcheering": 5967,
      "Ġadding": 5968,
      "Ġinstrum": 5969,
      "Ġchefs": 5970,
      "Ġswimsuit": 5971,
      "ĠChristmas": 5972,
      "Ġripe": 5973,
      "ĠBo": 5974,
      "Ġcans": 5975,
      "Ġeverybody": 5976,
      "Ġslap": 5977,
      "Ġmouths": 5978,
      "Ġwires": 5979,
      "Ġpraised": 5980,
      "Or": 5981,
      "eds": 5982,
      "alph": 5983,
      "ĠEverybody": 5984,
      "aren": 5985,
      "Ġhonk": 5986,
      "Ġtwinkle": 5987,
      "Ġagreement": 5988,
      "Ġrusty": 5989,
      "Ġopinion": 5990,
      "ib": 5991,
      "Ġtim": 5992,
      "Ġbeard": 5993,
      "Ġnect": 5994,
      "ĠletÃ¢": 5995,
      "boy": 5996,
      "Ġwinner": 5997,
      "Ġentrance": 5998,
      "Ġrustling": 5999,
      "Ġmaterials": 6000,
      "Ġactivities": 6001,
      "Ġinstructions": 6002,
      "Ġnectar": 6003,
      "boo": 6004,
      "irm": 6005,
      "Ġliqu": 6006,
      "Ġnoon": 6007,
      "Ġdecision": 6008,
      "Ġflapping": 6009,
      "Ġbeds": 6010,
      "Ġdrift": 6011,
      "Ġtricky": 6012,
      "ĠJulia": 6013,
      "Ġdirections": 6014,
      "Ġliquid": 6015,
      "Mmm": 6016,
      "Ġcal": 6017,
      "Ġbead": 6018,
      "ĠLizzie": 6019,
      "Yesterday": 6020,
      "Ġsquares": 6021,
      "Ġcompletely": 6022,
      "ĠCoco": 6023,
      "Ġfarther": 6024,
      "Ġexplorers": 6025,
      "ÅĵDo": 6026,
      "Ġunp": 6027,
      "Ġhider": 6028,
      "Ġrivers": 6029,
      "Ġstreets": 6030,
      "Bobo": 6031,
      "Ġtrips": 6032,
      "artha": 6033,
      "Ġlibrarian": 6034,
      "cuse": 6035,
      "Ġrecommended": 6036,
      "Ġwonders": 6037,
      "Le": 6038,
      "Ġtodd": 6039,
      "ĠLarry": 6040,
      "Ġpets": 6041,
      "Ġunderstanding": 6042,
      "Ġarguing": 6043,
      "Ġreflect": 6044,
      "aisies": 6045,
      "Ducky": 6046,
      "urious": 6047,
      "Ġdaisies": 6048,
      "Ġroses": 6049,
      "rol": 6050,
      "ĠEmmy": 6051,
      "umbling": 6052,
      "Ġmarker": 6053,
      "omething": 6054,
      "Ġfolding": 6055,
      "Ġscreaming": 6056,
      "Ġinclude": 6057,
      "Ġvictory": 6058,
      "Ġraindrops": 6059,
      ".'": 6060,
      "ky": 6061,
      "Ġble": 6062,
      "ĠSlowly": 6063,
      "ecting": 6064,
      "Ġchop": 6065,
      "asm": 6066,
      "anta": 6067,
      "Ġbroom": 6068,
      "Ġorganizing": 6069,
      "Happy": 6070,
      "Toby": 6071,
      "Ġdots": 6072,
      "Ġrobb": 6073,
      "Ġcuriously": 6074,
      "Ġpolished": 6075,
      "Thanks": 6076,
      "ĠJessica": 6077,
      "Excuse": 6078,
      "vers": 6079,
      "Ġeff": 6080,
      "ĠJay": 6081,
      "Ġscra": 6082,
      "Ġbecoming": 6083,
      "Ġprotected": 6084,
      "Ġrequested": 6085,
      "Ġmemory": 6086,
      "An": 6087,
      "rec": 6088,
      "ars": 6089,
      "ĠHoot": 6090,
      "Ġbelly": 6091,
      "Ġgoals": 6092,
      "Ġspice": 6093,
      "obody": 6094,
      "Ġsingle": 6095,
      "Ġwinning": 6096,
      "Ġwishes": 6097,
      "Polly": 6098,
      "Ġfirm": 6099,
      "ern": 6100,
      "Ġrus": 6101,
      "Ġwears": 6102,
      "ĠNick": 6103,
      "fl": 6104,
      "Ġsigh": 6105,
      "ĠTara": 6106,
      "ĠBinky": 6107,
      "Ġscarves": 6108,
      "Ġmelting": 6109,
      "Ġreveal": 6110,
      "ĠOlive": 6111,
      "May": 6112,
      "oey": 6113,
      "Ġwadd": 6114,
      "Ġlung": 6115,
      "Ġden": 6116,
      "Ġcust": 6117,
      "ĠSophia": 6118,
      "ories": 6119,
      "ĠBird": 6120,
      "Ġbeha": 6121,
      "Ġfairies": 6122,
      "Ġcupcakes": 6123,
      "Ġcowboy": 6124,
      "ĠWithout": 6125,
      "By": 6126,
      "Ġrings": 6127,
      "Ġesc": 6128,
      "Ġfever": 6129,
      "Ġlap": 6130,
      "Ġdarkness": 6131,
      "ĠwasnÃ¢": 6132,
      "Ġremoved": 6133,
      "Ġleaning": 6134,
      "Ġawake": 6135,
      "Rose": 6136,
      "ĠSqu": 6137,
      "Ġweeke": 6138,
      "ĠEnd": 6139,
      "Ġtwin": 6140,
      "Ġopening": 6141,
      "Ġbites": 6142,
      "Ġuses": 6143,
      "Ġhits": 6144,
      "Ġweekend": 6145,
      "coon": 6146,
      "tuce": 6147,
      "Ġaff": 6148,
      "Ġglee": 6149,
      "ĠMo": 6150,
      "urry": 6151,
      "bbled": 6152,
      "isten": 6153,
      "Ġlettuce": 6154,
      "ĠNina": 6155,
      "Ġmarked": 6156,
      "Ġwrapping": 6157,
      "Ġexpected": 6158,
      "Ġspeaking": 6159,
      "Ġtunnels": 6160,
      "Ġstealing": 6161,
      "Ġbeads": 6162,
      "During": 6163,
      "Kate": 6164,
      "bl": 6165,
      "gg": 6166,
      "Ëľ": 6167,
      "ĠBoth": 6168,
      "âĤ¬Ëľ": 6169,
      "Ġfilling": 6170,
      "Ġcompany": 6171,
      "Ġsolved": 6172,
      "Ġmushrooms": 6173,
      "Ġminerals": 6174,
      "Ġcheeks": 6175,
      "ĠNothing": 6176,
      "Ġcrumbs": 6177,
      "Ġcustom": 6178,
      "Blue": 6179,
      "jam": 6180,
      "you": 6181,
      "Ġunf": 6182,
      "Ġparties": 6183,
      "Ġpastels": 6184,
      "Ġgems": 6185,
      "uctantly": 6186,
      "Ġeffort": 6187,
      "Nemo": 6188,
      "ĠPinky": 6189,
      "ĠChe": 6190,
      "Ġstem": 6191,
      "Ġgrandparent": 6192,
      "Ġtemper": 6193,
      "Ġwow": 6194,
      "Ġwink": 6195,
      "iles": 6196,
      "Ġonions": 6197,
      "ases": 6198,
      "Ġhandful": 6199,
      "Ġdances": 6200,
      "Ġcomple": 6201,
      "Ġsuggest": 6202,
      "Katie": 6203,
      "arling": 6204,
      "Ġsaving": 6205,
      "Ġstacked": 6206,
      "Ġdarker": 6207,
      "Ġmagnets": 6208,
      "Ġdiscussed": 6209,
      "Ġhesitated": 6210,
      "Ġtiptoed": 6211,
      "Ġpiggy": 6212,
      "Ġcash": 6213,
      "ĠLaura": 6214,
      "Ġknees": 6215,
      "Ġtrapped": 6216,
      "Ġcreating": 6217,
      "Ġrolls": 6218,
      "Ġhelmets": 6219,
      "Ġregretted": 6220,
      "Ġunpacked": 6221,
      "Ġcough": 6222,
      "ords": 6223,
      "ickey": 6224,
      "Ġposter": 6225,
      "Ġkeeps": 6226,
      "Ġmuscle": 6227,
      "Ġteaching": 6228,
      "Ġprovided": 6229,
      "Ġsir": 6230,
      "âĤ¬ï¿½": 6231,
      "bbing": 6232,
      "Ġapprec": 6233,
      "Ġrecording": 6234,
      "Ġdiscovering": 6235,
      "Ġhesitant": 6236,
      "ĠFox": 6237,
      "Ġappreci": 6238,
      "Pat": 6239,
      "Ġbacked": 6240,
      "Ġrising": 6241,
      "Ġarr": 6242,
      "Ġletting": 6243,
      "Ġcracked": 6244,
      "Ġamong": 6245,
      "Ġpassen": 6246,
      "Ġbalanced": 6247,
      "aut": 6248,
      "Ġfriendsh": 6249,
      "Ġali": 6250,
      "ĠEarth": 6251,
      "ĠRobby": 6252,
      "Ġcontrol": 6253,
      "Ġbowls": 6254,
      "Ġreluctantly": 6255,
      "no": 6256,
      "Ġtangled": 6257,
      "ĠSanta": 6258,
      "ĠJacob": 6259,
      "Ġlets": 6260,
      "Ġvalued": 6261,
      "Ġcrackers": 6262,
      "Ġpenguins": 6263,
      "Tweety": 6264,
      "Ġsimple": 6265,
      "Whe": 6266,
      "Ġtramp": 6267,
      "Ġbreaking": 6268,
      "Ġshaped": 6269,
      "Ġvanish": 6270,
      "melia": 6271,
      "ĠPrincess": 6272,
      "Ġafford": 6273,
      "Ġcoup": 6274,
      "Ġobe": 6275,
      "Ġthorn": 6276,
      "enty": 6277,
      "ÅĵCome": 6278,
      "Ġsatis": 6279,
      "ĠOr": 6280,
      "âĤ¬âĢĿ": 6281,
      "ĠUnfortunately": 6282,
      "Ġpuppies": 6283,
      "Ġsquishy": 6284,
      "Ġtemperature": 6285,
      "Pe": 6286,
      "pr": 6287,
      "yan": 6288,
      "anes": 6289,
      "ntil": 6290,
      "Ġprayer": 6291,
      "Ġobjects": 6292,
      "Ġarrows": 6293,
      "Ġcopy": 6294,
      "Ġcomplained": 6295,
      "Ġincluding": 6296,
      "ĠY": 6297,
      "ĠMa": 6298,
      "opsy": 6299,
      "Ġquacked": 6300,
      "Ġzipping": 6301,
      "Ġaccidents": 6302,
      "Ġrepeated": 6303,
      "Ġmemories": 6304,
      "Ġcouple": 6305,
      "Ġobey": 6306,
      "Dan": 6307,
      "Ġkites": 6308,
      "Ġsigned": 6309,
      "Ġshirts": 6310,
      "ĠAlong": 6311,
      "ĠSparky": 6312,
      "ĠAunt": 6313,
      "Ġneedles": 6314,
      "Ġsmiley": 6315,
      "Ġfriendship": 6316,
      "Ġtrampoline": 6317,
      "dri": 6318,
      "sure": 6319,
      "ĠĠĊ": 6320,
      "ids": 6321,
      "Ġplayers": 6322,
      "Ġwatches": 6323,
      "Ġconcer": 6324,
      "avi": 6325,
      "ĠNext": 6326,
      "Ġpaddle": 6327,
      "Those": 6328,
      "Unfortunately": 6329,
      "Ġmesmerized": 6330,
      "Ġescaped": 6331,
      "Milly": 6332,
      "ĠSomething": 6333,
      "ppers": 6334,
      "using": 6335,
      "Ġbackwards": 6336,
      "ĠTodd": 6337,
      "Ġclowns": 6338,
      "Ġpoliceman": 6339,
      "Ġstudents": 6340,
      "ĠRover": 6341,
      "Ġcenter": 6342,
      "band": 6343,
      "imon": 6344,
      "Ġboom": 6345,
      "ept": 6346,
      "ounce": 6347,
      "Ġshrinking": 6348,
      "ĠZoey": 6349,
      "Ġinsects": 6350,
      "Ġsports": 6351,
      "ĠRobert": 6352,
      "iding": 6353,
      "Ġneare": 6354,
      "ĠPut": 6355,
      "Ġsnowfl": 6356,
      "Ġpatted": 6357,
      "uggles": 6358,
      "Ġsplashes": 6359,
      "Ġstroll": 6360,
      "Maria": 6361,
      "Tina": 6362,
      "ael": 6363,
      "dies": 6364,
      "Ġlower": 6365,
      "ĠSque": 6366,
      "ĠThese": 6367,
      "Ġtractor": 6368,
      "ichael": 6369,
      "Ġpotion": 6370,
      "Ġneighbours": 6371,
      "Ġshops": 6372,
      "Ġsolut": 6373,
      "Ġclaps": 6374,
      "ĠMaya": 6375,
      "Ġtoddler": 6376,
      "atur": 6377,
      "Ġspit": 6378,
      "ĠJones": 6379,
      "Ġchuck": 6380,
      "Ġwrink": 6381,
      "Ġsnowmen": 6382,
      "Ġcandies": 6383,
      "ĠSnuggles": 6384,
      "Ġrespect": 6385,
      "Ġbeginning": 6386,
      "Ġcompleted": 6387,
      "Ab": 6388,
      "ippy": 6389,
      "itched": 6390,
      "Ġlimes": 6391,
      "isty": 6392,
      "Ġsale": 6393,
      "Ġthird": 6394,
      "ades": 6395,
      "Ġpride": 6396,
      "Ġstrang": 6397,
      "Ġglasses": 6398,
      "Ġkisses": 6399,
      "Ġrescued": 6400,
      "ne": 6401,
      "onna": 6402,
      "ados": 6403,
      "choo": 6404,
      "ĠMartha": 6405,
      "Ġswept": 6406,
      "Ġmeals": 6407,
      "ĠJacky": 6408,
      "ÅĵWow": 6409,
      "ĠPam": 6410,
      "Ġbedtime": 6411,
      "Ġweeping": 6412,
      "Ġwaddled": 6413,
      "Baby": 6414,
      "Ew": 6415,
      "Mine": 6416,
      "Some": 6417,
      "zes": 6418,
      "Ġlied": 6419,
      "Ġlicks": 6420,
      "ĠJune": 6421,
      "umm": 6422,
      "retty": 6423,
      "Ġoverjoy": 6424,
      "Ġwrigg": 6425,
      "ĠNobody": 6426,
      "ĠMikey": 6427,
      "Ġcuddly": 6428,
      "ĠAbi": 6429,
      "jamas": 6430,
      "Ġtables": 6431,
      "Ġcreamy": 6432,
      "Ġstreamers": 6433,
      "Ġpaying": 6434,
      "Ġbuzzed": 6435,
      "Ġavocados": 6436,
      "Ġscrews": 6437,
      "Ġcashier": 6438,
      "yes": 6439,
      "Ġcous": 6440,
      "Ġhappiest": 6441,
      "Ġwarri": 6442,
      "ĠCra": 6443,
      "Ġbaths": 6444,
      "Ġzebras": 6445,
      "Remember": 6446,
      "Ġstomped": 6447,
      "ĠPippin": 6448,
      "Ġseashells": 6449,
      "Ġheavier": 6450,
      "Ġpout": 6451,
      "ĠBaa": 6452,
      "Ġbuying": 6453,
      "Ġprec": 6454,
      "Ġcorners": 6455,
      "Ġsnakes": 6456,
      "Ġdiving": 6457,
      "Ġbumps": 6458,
      "ĠFollow": 6459,
      "Ġspikes": 6460,
      "Excited": 6461,
      "Ġpurred": 6462,
      "ĠSadie": 6463,
      "Ġstrangers": 6464,
      "cope": 6465,
      "pite": 6466,
      "Ġais": 6467,
      "Ġdip": 6468,
      "Ġdarling": 6469,
      "Ġgonna": 6470,
      "Ġplenty": 6471,
      "ĠBee": 6472,
      "ĠĊĠ": 6473,
      "ĠEx": 6474,
      "Ġchip": 6475,
      "ths": 6476,
      "Ġpens": 6477,
      "Ġsprinkled": 6478,
      "Ġslices": 6479,
      "Ġconfident": 6480,
      "Ġgreeted": 6481,
      "sie": 6482,
      "Ġhus": 6483,
      "Ġlun": 6484,
      "ĠTuna": 6485,
      "Ġnur": 6486,
      "Ġstool": 6487,
      "Ġplain": 6488,
      "ĠMickey": 6489,
      "ĠAbbie": 6490,
      "Ġworries": 6491,
      "Ġmaster": 6492,
      "Ġhandsome": 6493,
      "Ġsteer": 6494,
      "Ġcuts": 6495,
      "Ġourselves": 6496,
      "ĠwouldnÃ¢": 6497,
      "Ġseaw": 6498,
      "Ġlaying": 6499,
      "ĠZip": 6500,
      "Ġcelebration": 6501,
      "Ġgracefully": 6502,
      "Ġspices": 6503,
      "Ġrushing": 6504,
      "Ġplucked": 6505,
      "Ġunsure": 6506,
      "ĠAsh": 6507,
      "Ġprinting": 6508,
      "Ġsalty": 6509,
      "ĠUp": 6510,
      "Ġneatly": 6511,
      "Ġwiggle": 6512,
      "Ġwidened": 6513,
      "Roar": 6514,
      "Ġreflection": 6515,
      "Ġoverjoyed": 6516,
      "len": 6517,
      "oke": 6518,
      "ouch": 6519,
      "Ġpec": 6520,
      "Ġhissed": 6521,
      "Ġswords": 6522,
      "ĠKiki": 6523,
      "Ġscaring": 6524,
      "Ġcelebrating": 6525,
      "Ġperformance": 6526,
      "Meow": 6527,
      "ossible": 6528,
      "ido": 6529,
      "ans": 6530,
      "ĠJudy": 6531,
      "ongo": 6532,
      "ĠLi": 6533,
      "ĠFar": 6534,
      "Ġteased": 6535,
      "Ġforests": 6536,
      "Ġdrawn": 6537,
      "Ġtowels": 6538,
      "Ġimpossible": 6539,
      "Ġdrawers": 6540,
      "Ġcloudy": 6541,
      "Ġpaintbrush": 6542,
      "Ġbasement": 6543,
      "Ġscrewdri": 6544,
      "Ġscurry": 6545,
      "Ġexperience": 6546,
      "eel": 6547,
      "oni": 6548,
      "Ġcausing": 6549,
      "Ġdrives": 6550,
      "Ġplanning": 6551,
      "Ġrecipe": 6552,
      "Ġhitting": 6553,
      "Ġhoriz": 6554,
      "Ġpostman": 6555,
      "ĠUnder": 6556,
      "ĠQuackers": 6557,
      "Ġseaweed": 6558,
      "For": 6559,
      "ĠMilo": 6560,
      "Ġknown": 6561,
      "Ġworth": 6562,
      "Ġtreehouse": 6563,
      "usted": 6564,
      "Ġpajamas": 6565,
      "ÅĵWhere": 6566,
      "Ġcrashing": 6567,
      "Ġjackets": 6568,
      "Ġhorizon": 6569,
      "Lilly": 6570,
      "Que": 6571,
      "Ġmunch": 6572,
      "ĠSure": 6573,
      "Ġinsp": 6574,
      "ĠBessie": 6575,
      "Ġchoo": 6576,
      "Ġcoloring": 6577,
      "Ġnearly": 6578,
      "ĠRyan": 6579,
      "anging": 6580,
      "ronaut": 6581,
      "Ġornaments": 6582,
      "Ġrespond": 6583,
      "ĠMeg": 6584,
      "Ġ10": 6585,
      "Ġastronaut": 6586,
      "Ġscrewdriver": 6587,
      "Queen": 6588,
      "ded": 6589,
      "dress": 6590,
      "Ġflas": 6591,
      "arac": 6592,
      "Ġhearing": 6593,
      "ĠStella": 6594,
      "Ġsatisfied": 6595,
      "Ġblinking": 6596,
      "ĠWater": 6597,
      "Ġsails": 6598,
      "Ġbattle": 6599,
      "Ġloading": 6600,
      "Ġtrembled": 6601,
      "Ġseparated": 6602,
      "Ġfirefighters": 6603,
      "Ġtoaster": 6604,
      "Ġnood": 6605,
      "Ġstern": 6606,
      "ters": 6607,
      "Ġropes": 6608,
      "Ġwhose": 6609,
      "Ġtapped": 6610,
      "Ġleading": 6611,
      "Ġtriangles": 6612,
      "Ġsuperheroes": 6613,
      "Ġcottage": 6614,
      "Ġgrandparents": 6615,
      "Ġsolution": 6616,
      "Ġprecious": 6617,
      "Ġseven": 6618,
      "ÅĵMom": 6619,
      "Ġsailors": 6620,
      "Ġmasks": 6621,
      "Ġcoral": 6622,
      "Ġtimer": 6623,
      "Ġbleed": 6624,
      "Jul": 6625,
      "while": 6626,
      "Ġcrew": 6627,
      "Ġopp": 6628,
      "endy": 6629,
      "fus": 6630,
      "iley": 6631,
      "Ġtrot": 6632,
      "Ġreplaced": 6633,
      "Ġdoorway": 6634,
      "ĠRay": 6635,
      "Ġhairdress": 6636,
      "though": 6637,
      "Ġpolar": 6638,
      "Ġblows": 6639,
      "ĠUntil": 6640,
      "Ġchuckled": 6641,
      "Ġhusband": 6642,
      "Back": 6643,
      "Jerry": 6644,
      "fire": 6645,
      "ppa": 6646,
      "sty": 6647,
      "Ġexcept": 6648,
      "ĠAmelia": 6649,
      "Ġdecides": 6650,
      "Ġcharac": 6651,
      "Ġgrant": 6652,
      "Ġconn": 6653,
      "Ġchopped": 6654,
      "Ġnervously": 6655,
      "Ġnecklaces": 6656,
      "Ġburst": 6657,
      "vant": 6658,
      "Ġï¿½": 6659,
      "Ġage": 6660,
      "Ġech": 6661,
      "Ġsnatched": 6662,
      "abby": 6663,
      "Ġcolder": 6664,
      "emma": 6665,
      "Ġacting": 6666,
      "Ġtested": 6667,
      "Ġdesigned": 6668,
      "Ġpreparing": 6669,
      "Br": 6670,
      "Bet": 6671,
      "Ha": 6672,
      "cake": 6673,
      "Ġwins": 6674,
      "Ġpeppers": 6675,
      "Ġwatering": 6676,
      "Ġpuff": 6677,
      "ĠPo": 6678,
      "Ġdragged": 6679,
      "Ġcomplaining": 6680,
      "Ġhairdresser": 6681,
      "--": 6682,
      "Bill": 6683,
      "cl": 6684,
      "vil": 6685,
      "ĠQueen": 6686,
      "ĠSun": 6687,
      "ĠSatur": 6688,
      "igning": 6689,
      "Ġcaused": 6690,
      "Ġtwisty": 6691,
      "Ġstarfish": 6692,
      "Ġplans": 6693,
      "Ġdreamt": 6694,
      "ĠBluey": 6695,
      "Ġtempt": 6696,
      "ĠBirdy": 6697,
      "ĠSaturday": 6698,
      "Time": 6699,
      "rees": 6700,
      "anwhile": 6701,
      "Ġrip": 6702,
      "unched": 6703,
      "ĠyouÃ¢": 6704,
      "Ġexha": 6705,
      "Ġdresser": 6706,
      "Ġexpect": 6707,
      "Ġships": 6708,
      "Ġfishes": 6709,
      "Ġdesigns": 6710,
      "ĠPatty": 6711,
      "Ġmembers": 6712,
      "ĠSquirrel": 6713,
      "Fo": 6714,
      "iel": 6715,
      "oh": 6716,
      "Ġoh": 6717,
      "ĠBl": 6718,
      "Ġreass": 6719,
      "iona": 6720,
      "ĠFor": 6721,
      "ĠFido": 6722,
      "Ġstolen": 6723,
      "Ġsurprising": 6724,
      "Ġunited": 6725,
      "Ġrainy": 6726,
      "ĠFlopsy": 6727,
      "Ġprove": 6728,
      "Ġcovers": 6729,
      "Ġdelivered": 6730,
      "...": 6731,
      "Clara": 6732,
      "what": 6733,
      "rey": 6734,
      "Ġdied": 6735,
      "anie": 6736,
      "Ġweeds": 6737,
      "Ġblond": 6738,
      "Ġsmelling": 6739,
      "ments": 6740,
      "Ġlifting": 6741,
      "Ġpaths": 6742,
      "Ġexhausted": 6743,
      "Sad": 6744,
      "the": 6745,
      "Ġ2": 6746,
      "onies": 6747,
      "iled": 6748,
      "Ġnicer": 6749,
      "Ġneither": 6750,
      "Ġgobbled": 6751,
      "artled": 6752,
      "iece": 6753,
      "ooky": 6754,
      "ĠWally": 6755,
      "Ġeats": 6756,
      "Ġoffic": 6757,
      "Ġtricycle": 6758,
      "Ġtablet": 6759,
      "issa": 6760,
      "Ġtasks": 6761,
      "Ġoysters": 6762,
      "Ġmints": 6763,
      "Ġsibl": 6764,
      "ĠFrog": 6765,
      "Ġsiblings": 6766,
      "hog": 6767,
      "Ġdet": 6768,
      "Ġponies": 6769,
      "ĠSc": 6770,
      "Ġevil": 6771,
      "ĠBongo": 6772,
      "Ġdollhouse": 6773,
      "Ġpanicked": 6774,
      "Ġpigeons": 6775,
      "Ġenthusi": 6776,
      "Ġtravelling": 6777,
      "Ġleapt": 6778,
      "Ġarranged": 6779,
      "Whee": 6780,
      "Ruby": 6781,
      "eah": 6782,
      "jo": 6783,
      "Ġtossed": 6784,
      "Ġgri": 6785,
      "Ġnapping": 6786,
      "child": 6787,
      "Ġclick": 6788,
      "Ġchases": 6789,
      "ĠDid": 6790,
      "Ġprett": 6791,
      "Ġsitu": 6792,
      "shm": 6793,
      "Ġcounts": 6794,
      "Ġseconds": 6795,
      "Ġpassengers": 6796,
      "Ġenthusiasm": 6797,
      "line": 6798,
      "vest": 6799,
      "itting": 6800,
      "ĠMabel": 6801,
      "ĠMichael": 6802,
      "Ġstrongest": 6803,
      "ĠGina": 6804,
      "Ġduckling": 6805,
      "Ġyesterday": 6806,
      "Ġmisses": 6807,
      "Ġgrandchild": 6808,
      "ĠStan": 6809,
      "Ġsurfboard": 6810,
      "Ġsnuggle": 6811,
      "Ġbrushing": 6812,
      "Ġwobbly": 6813,
      "eeling": 6814,
      "shmallow": 6815,
      "please": 6816,
      "Ġrout": 6817,
      "Ġspooky": 6818,
      "ĠElly": 6819,
      "ĠEva": 6820,
      "ÅĵMy": 6821,
      "Ġwinked": 6822,
      "Ġvanilla": 6823,
      "Ġwishing": 6824,
      "ĠJanie": 6825,
      "ĠSqueaky": 6826,
      "Ġlungs": 6827,
      "Tr": 6828,
      "ker": 6829,
      "ammy": 6830,
      "Ġcharge": 6831,
      "Ġblood": 6832,
      "Ġglued": 6833,
      "Ġreads": 6834,
      "Ġspoonful": 6835,
      "Ġdrivers": 6836,
      "Ġservant": 6837,
      "Ġtwinkled": 6838,
      "Ġrefreshing": 6839,
      "ĠGranny": 6840,
      "Ġwarrior": 6841,
      "ĠFarmer": 6842,
      "Tony": 6843,
      "zzy": 6844,
      "Ġaimed": 6845,
      "Ġmate": 6846,
      "Ġmerry": 6847,
      "stick": 6848,
      "Ġcosy": 6849,
      "Ġslipping": 6850,
      "Ġplanting": 6851,
      "ĠOwl": 6852,
      "Ġpuzzled": 6853,
      "Ġswans": 6854,
      "Ġcampfire": 6855,
      "Ġhedgehog": 6856,
      "Ġshovels": 6857,
      "Ġwobbled": 6858,
      "ĠLouise": 6859,
      "ĠKeep": 6860,
      "Ġfamilies": 6861,
      "Ġcousin": 6862,
      "ĠExcited": 6863,
      "Ġscurrying": 6864,
      "Ġnoodles": 6865,
      "Ros": 6866,
      "Wh": 6867,
      "cky": 6868,
      "Ġclues": 6869,
      "Ġgrabbing": 6870,
      "Ġtoward": 6871,
      "acles": 6872,
      "meal": 6873,
      "Ġcontinue": 6874,
      "Ġpackages": 6875,
      "Ġkicks": 6876,
      "Ġedges": 6877,
      "Ġwiping": 6878,
      "Ġoatmeal": 6879,
      "Ġwobble": 6880,
      "Leo": 6881,
      "Two": 6882,
      "Ġpins": 6883,
      "ancy": 6884,
      "ĠBy": 6885,
      "ĠMira": 6886,
      "Ġworn": 6887,
      "ably": 6888,
      "ĠWatch": 6889,
      "antha": 6890,
      "ĠJoan": 6891,
      "ilda": 6892,
      "Whenever": 6893,
      "ÅĵPlease": 6894,
      "Ġbows": 6895,
      "Ġlighter": 6896,
      "ounced": 6897,
      "Ġspreading": 6898,
      "ĠZero": 6899,
      "Ġadults": 6900,
      "Ġofficers": 6901,
      "Ġprettier": 6902,
      "fia": 6903,
      "Ġhour": 6904,
      "Ġgaz": 6905,
      "ĠSimon": 6906,
      "Ġplayroom": 6907,
      "Ġwept": 6908,
      "ĠBow": 6909,
      "Ġaren": 6910,
      "Ġkittens": 6911,
      "Ġfeeding": 6912,
      "ĠDavey": 6913,
      "rrr": 6914,
      "eese": 6915,
      "Ġachie": 6916,
      "Ġmer": 6917,
      "arrow": 6918,
      "Ġoc": 6919,
      "Ġloving": 6920,
      "Ġchilly": 6921,
      "Ġbuses": 6922,
      "Ġending": 6923,
      "Ġmarshmallow": 6924,
      "Ġpolitely": 6925,
      "Ġsneezing": 6926,
      "Ġresisted": 6927,
      "Ġwiggly": 6928,
      "Ġflavors": 6929,
      "ĠRobbie": 6930,
      "ĠChris": 6931,
      "Ġinstruments": 6932,
      "Ġfirmly": 6933,
      "Jamie": 6934,
      "Yummy": 6935,
      "fall": 6936,
      "Ġrays": 6937,
      "ĠRalph": 6938,
      "Ġbehavi": 6939,
      "Ġcreations": 6940,
      "Ġdesper": 6941,
      "Ġtoolbox": 6942,
      "Ġsilent": 6943,
      "Ġspeeding": 6944,
      "Ġinsisting": 6945,
      "Ġcobwebs": 6946,
      "Ġincreased": 6947,
      "Tweetie": 6948,
      "ĠFrosty": 6949,
      "Ġperforming": 6950,
      "Ġsituation": 6951,
      "cused": 6952,
      "mered": 6953,
      "worm": 6954,
      "Ġpound": 6955,
      "Ġspong": 6956,
      "Ġchanging": 6957,
      "Ġpeep": 6958,
      "Ġfocused": 6959,
      "Ġwarmer": 6960,
      "Ġcraft": 6961,
      "athan": 6962,
      "Ġzookeeper": 6963,
      "ĠStop": 6964,
      "Ġpumpkins": 6965,
      "ĠPepper": 6966,
      "Ġscraped": 6967,
      "?!\"": 6968,
      "Have": 6969,
      "Hannah": 6970,
      "Ġheight": 6971,
      "Ġmoo": 6972,
      "Ġgeese": 6973,
      "Ġnoses": 6974,
      "Ġafterwards": 6975,
      "Ġmagician": 6976,
      "Ġgrows": 6977,
      "Ġthanks": 6978,
      "Ġdived": 6979,
      "Ġgrandd": 6980,
      "Ġembarrass": 6981,
      "Ġgears": 6982,
      "Ġseems": 6983,
      "Ġraccoon": 6984,
      "Ġdiscussing": 6985,
      "Ġparticularly": 6986,
      "Ġswaying": 6987,
      "Rob": 6988,
      "Ted": 6989,
      "Vroom": 6990,
      "edy": 6991,
      "ĠHoney": 6992,
      "ĠHappy": 6993,
      "Ġbeam": 6994,
      "ĠMart": 6995,
      "Ġrefu": 6996,
      "Ġsled": 6997,
      "ĠCurious": 6998,
      "Ġfiremen": 6999,
      "Ġhides": 7000,
      "Ġdecorating": 7001,
      "Steve": 7002,
      "Ġpraying": 7003,
      "attered": 7004,
      "Ġdelivering": 7005,
      "Ġapologize": 7006,
      "Ġglittering": 7007,
      "ĠQuick": 7008,
      "bird": 7009,
      "ca": 7010,
      "ening": 7011,
      "ppies": 7012,
      "step": 7013,
      "Ġshimmering": 7014,
      "Ġscored": 7015,
      "ears": 7016,
      "Ġforehead": 7017,
      "Ġunw": 7018,
      "ĠKaren": 7019,
      "Ġsecure": 7020,
      "Ġbracelets": 7021,
      "Ġcushions": 7022,
      "Ġstroked": 7023,
      "Ġwider": 7024,
      "Ġguests": 7025,
      "Yeah": 7026,
      "Ġcond": 7027,
      "Ġflight": 7028,
      "Ġtapping": 7029,
      "Ġfinishing": 7030,
      "Ġrains": 7031,
      "Ġslower": 7032,
      "Ġremembers": 7033,
      "Beep": 7034,
      "Ġcalmly": 7035,
      "Ġknocks": 7036,
      "Ġforts": 7037,
      "Ġtubes": 7038,
      "Shh": 7039,
      "Bunny": 7040,
      "ĠHallow": 7041,
      "ĠAg": 7042,
      "ĠAng": 7043,
      "Ġpeck": 7044,
      "Ġbully": 7045,
      "Ġstays": 7046,
      "Ġstaying": 7047,
      "oys": 7048,
      "ugging": 7049,
      "Ġwakes": 7050,
      "Ġburying": 7051,
      "Ġsewing": 7052,
      "Ġmaterial": 7053,
      "ĠSadly": 7054,
      "Ġtype": 7055,
      "Ġpouted": 7056,
      "ĠAshley": 7057,
      "Ġsponge": 7058,
      "ĠHalloween": 7059,
      "sa": 7060,
      "eday": 7061,
      "rect": 7062,
      "ĠTw": 7063,
      "isc": 7064,
      "ĠSpl": 7065,
      "chy": 7066,
      "Ġshady": 7067,
      "Ġloc": 7068,
      "ampered": 7069,
      "Ġvegg": 7070,
      "Ġignoring": 7071,
      "Ġscram": 7072,
      "ĠPeppa": 7073,
      "Ġencount": 7074,
      "Ġsniffing": 7075,
      "Ġwhispering": 7076,
      "Ġnovels": 7077,
      "Ġveggies": 7078,
      "Mad": 7079,
      "Out": 7080,
      "Penny": 7081,
      "hil": 7082,
      "mates": 7083,
      "Ġtying": 7084,
      "iment": 7085,
      "ĠHave": 7086,
      "Ġyel": 7087,
      "Ġsomeday": 7088,
      "Ġjugg": 7089,
      "ĠAlly": 7090,
      "Ġscen": 7091,
      "Ġscampered": 7092,
      "Ġvines": 7093,
      "Josh": 7094,
      "Ġremote": 7095,
      "Ġbells": 7096,
      "Ġangels": 7097,
      "Ġpleaded": 7098,
      "Ġsunflowers": 7099,
      "ĠEliz": 7100,
      "Ġrobber": 7101,
      "Ġnurses": 7102,
      "Ġgazing": 7103,
      "Ġtar": 7104,
      "Ġluckily": 7105,
      "Ġdaring": 7106,
      "ĠIm": 7107,
      "idey": 7108,
      "ecca": 7109,
      "Ġpoppies": 7110,
      "aula": 7111,
      "Ġache": 7112,
      "Ġsquished": 7113,
      "Ġamount": 7114,
      "Ġraces": 7115,
      "Ġdistract": 7116,
      "Ġhumming": 7117,
      "Ġtwisting": 7118,
      "Ġquestioned": 7119,
      "Ġhealed": 7120,
      "Ġexercises": 7121,
      "Ġsurroundings": 7122,
      "Ġgrowls": 7123,
      "Ġcorrect": 7124,
      "Bye": 7125,
      "Ġaisle": 7126,
      "Each": 7127,
      "vince": 7128,
      "Ġslither": 7129,
      "Ġcomm": 7130,
      "ÅĵThank": 7131,
      "Ġstopping": 7132,
      "oger": 7133,
      "Ġbadge": 7134,
      "Ġconvince": 7135,
      "boards": 7136,
      "ĠKelly": 7137,
      "ĠwonÃ¢": 7138,
      "Ġsqueezing": 7139,
      "Ġhumans": 7140,
      "Ġfilms": 7141,
      "Ġsuffered": 7142,
      "Frank": 7143,
      "Ġalien": 7144,
      "Woof": 7145,
      "upt": 7146,
      "Ġsadd": 7147,
      "veral": 7148,
      "ĠMina": 7149,
      "Ġseveral": 7150,
      "ĠWendy": 7151,
      "Ġgardener": 7152,
      "ÅĵHey": 7153,
      "Ġfins": 7154,
      "Ġthroughout": 7155,
      "Ġsteady": 7156,
      "rence": 7157,
      "Ġrestored": 7158,
      "Ġyoungest": 7159,
      "Ġpops": 7160,
      "Ġdriveway": 7161,
      "Ġmischie": 7162,
      "Ġcrossing": 7163,
      "undred": 7164,
      "ĠAli": 7165,
      "Ġfloats": 7166,
      "ĠPippa": 7167,
      "Ġannoy": 7168,
      "Ġsnowflakes": 7169,
      "Ġtrotted": 7170,
      "Ġscrambled": 7171,
      "Papa": 7172,
      "Watch": 7173,
      "ners": 7174,
      "ping": 7175,
      "hew": 7176,
      "Ġsense": 7177,
      "itches": 7178,
      "Ġdam": 7179,
      "onnie": 7180,
      "arter": 7181,
      "Ġsmarter": 7182,
      "Ġscient": 7183,
      "Ġfaced": 7184,
      "ĠLena": 7185,
      "Ġcatches": 7186,
      "Ġbye": 7187,
      "Ġbits": 7188,
      "Ġruin": 7189,
      "Ġrubs": 7190,
      "Ġsurfing": 7191,
      "Ġforks": 7192,
      "Ġmagazines": 7193,
      "Ġencountered": 7194,
      "Ġscientist": 7195,
      "wk": 7196,
      "Ġhen": 7197,
      "Ġodd": 7198,
      "Ġhawk": 7199,
      "Ġsoaking": 7200,
      "Ġbodies": 7201,
      "Ġtwice": 7202,
      "Ġsquir": 7203,
      "Ġrobots": 7204,
      "Ġfrowning": 7205,
      "ivia": 7206,
      "Meanwhile": 7207,
      "Ġvibr": 7208,
      "Ġquarreling": 7209,
      "Ġreversed": 7210,
      "Ġcotton": 7211,
      "Ġconcert": 7212,
      "Ġmarshmallows": 7213,
      "Ġmischievous": 7214,
      "Car": 7215,
      "David": 7216,
      "Uh": 7217,
      "innie": 7218,
      "ĠHolly": 7219,
      "amma": 7220,
      "rian": 7221,
      "Ġlosing": 7222,
      "Ġspins": 7223,
      "ĠAm": 7224,
      "ĠDory": 7225,
      "Ġskunk": 7226,
      "Ġsunsc": 7227,
      "LetÃ¢": 7228,
      "ledge": 7229,
      "ĠSpeed": 7230,
      "Ġheading": 7231,
      "asty": 7232,
      "Ġnapkins": 7233,
      "Ġantic": 7234,
      "Ġrule": 7235,
      "ĠZoomy": 7236,
      "Ġtickling": 7237,
      "Ġfigures": 7238,
      "Ġprick": 7239,
      "Ġsoapy": 7240,
      "Ġshorts": 7241,
      "Ġsqueak": 7242,
      "ĠJean": 7243,
      "Ġsuffering": 7244,
      "Ġswayed": 7245,
      "Ġcustomers": 7246,
      "Follow": 7247,
      "Ġsunscreen": 7248,
      "Kim": 7249,
      "cie": 7250,
      "lor": 7251,
      "ts": 7252,
      "vroom": 7253,
      "utter": 7254,
      "Ġsofter": 7255,
      "Ġfact": 7256,
      "Ġblocked": 7257,
      "Ġknowledge": 7258,
      "ĠSofia": 7259,
      "ĠFiona": 7260,
      "ÅĵWho": 7261,
      "Ġwinding": 7262,
      "Ġpennies": 7263,
      "Ġtails": 7264,
      "ĠStay": 7265,
      "Ġprotecting": 7266,
      "Ġcrowns": 7267,
      "Ġsuits": 7268,
      "Ġteams": 7269,
      "ĠPatch": 7270,
      "Anne": 7271,
      "Ġinchworm": 7272,
      "Ġnibble": 7273,
      "Ġperformed": 7274,
      "Ġthorns": 7275,
      "Ġoccas": 7276,
      "Jessie": 7277,
      "Rachel": 7278,
      "but": 7279,
      "ĠX": 7280,
      "Ġaud": 7281,
      "Ġsped": 7282,
      "ĠAva": 7283,
      "ddie": 7284,
      "Ġfeast": 7285,
      "ÅĵBut": 7286,
      "Ġdressing": 7287,
      "Ġglimmering": 7288,
      "Ġsweetest": 7289,
      "Ġmarve": 7290,
      "olph": 7291,
      "Ġteachers": 7292,
      "Ġsweaty": 7293,
      "Ġmagnif": 7294,
      "Ġrepeating": 7295,
      "ĠThose": 7296,
      "Ġstroke": 7297,
      "Ġmeowing": 7298,
      "Claire": 7299,
      "pit": 7300,
      "whe": 7301,
      "Ġtumbled": 7302,
      "Ġwaded": 7303,
      "Ġbeating": 7304,
      "espite": 7305,
      "asers": 7306,
      "manda": 7307,
      "Ġbrightest": 7308,
      "Ġgreedy": 7309,
      "ĠJaney": 7310,
      "Ġfloors": 7311,
      "ails": 7312,
      "Ġwindowsill": 7313,
      "Ġseagulls": 7314,
      "Ġbleeding": 7315,
      "Ġmatey": 7316,
      "Ġpeeped": 7317,
      "Ġgranddaughter": 7318,
      "Ġtarget": 7319,
      "Buddy": 7320,
      "Je": 7321,
      "Mat": 7322,
      "Mimi": 7323,
      "Ġhundred": 7324,
      "onse": 7325,
      "ĠTy": 7326,
      "Ġrumbling": 7327,
      "rier": 7328,
      "lyn": 7329,
      "Ġimagining": 7330,
      "Ġstatues": 7331,
      "Ġresponse": 7332,
      "Ġpupils": 7333,
      "Ġdrifted": 7334,
      "Rosie": 7335,
      "Bang": 7336,
      "bage": 7337,
      "Ġfreed": 7338,
      "Ġmood": 7339,
      "inger": 7340,
      "order": 7341,
      "Ġease": 7342,
      "Ġsmelt": 7343,
      "Ġhelpers": 7344,
      "Ġcause": 7345,
      "Ġflown": 7346,
      "Ġblast": 7347,
      "Ġbravest": 7348,
      "Ġbaskets": 7349,
      "Ġpours": 7350,
      "Ġpicnics": 7351,
      "Ġpeacefully": 7352,
      "Ġgarbage": 7353,
      "illiam": 7354,
      "Ġcovering": 7355,
      "Ġsweat": 7356,
      "Ġloops": 7357,
      "Ġsewed": 7358,
      "ĠFroggy": 7359,
      "ĠKevin": 7360,
      "Ġbehaved": 7361,
      "ĠMae": 7362,
      "Ġnearest": 7363,
      "Feeling": 7364,
      "bell": 7365,
      "Ġsill": 7366,
      "ĠTiger": 7367,
      "Ġris": 7368,
      "Ġnotes": 7369,
      "ĠJax": 7370,
      "Ġscent": 7371,
      "ĠWh": 7372,
      "Ġgoodies": 7373,
      "Ġsquinted": 7374,
      "Ġdefe": 7375,
      "ection": 7376,
      "Ġdancers": 7377,
      "Ġexamining": 7378,
      "Ġturtles": 7379,
      "ĠFreddie": 7380,
      "Ġartist": 7381,
      "ĠHelen": 7382,
      "Ġpecked": 7383,
      "iscuit": 7384,
      "Abby": 7385,
      "Great": 7386,
      "Ġfant": 7387,
      "Ġlent": 7388,
      "Ġgross": 7389,
      "cess": 7390,
      "Ġstall": 7391,
      "Ġstain": 7392,
      "ooking": 7393,
      "str": 7394,
      "ĠBarry": 7395,
      "elvet": 7396,
      "Ġrepa": 7397,
      "Ġspies": 7398,
      "ĠAna": 7399,
      "ĠJackie": 7400,
      "Ġdifference": 7401,
      "ĠRain": 7402,
      "Ġdropping": 7403,
      "ĠNana": 7404,
      "Ġjoyful": 7405,
      "Ġmailed": 7406,
      "Ġaction": 7407,
      "Ġborrowed": 7408,
      "ĠBubba": 7409,
      "Ġcontainer": 7410,
      "Ġfirefly": 7411,
      "abelle": 7412,
      "Ġwrinkled": 7413,
      "Ġechoed": 7414,
      "Ġfantastic": 7415,
      "Ġrepaired": 7416,
      "bank": 7417,
      "athy": 7418,
      "Ġnasty": 7419,
      "Ġund": 7420,
      "Ġcaring": 7421,
      "Ġflipped": 7422,
      "Ġoverhead": 7423,
      "ĠSpidey": 7424,
      "ĠRu": 7425,
      "Ġhotter": 7426,
      "Ġhealth": 7427,
      "Ġsending": 7428,
      "Ġoutfits": 7429,
      "ĠBirthday": 7430,
      "Ġfamiliar": 7431,
      "Ġresponded": 7432,
      "Ġblonde": 7433,
      "Ġanticip": 7434,
      "Buzz": 7435,
      "Gina": 7436,
      "Jess": 7437,
      "rink": 7438,
      "erk": 7439,
      "ĠMouse": 7440,
      "ĠMaisy": 7441,
      "Ġkings": 7442,
      "ĠLike": 7443,
      "Momma": 7444,
      "Ġbeeh": 7445,
      "ÅĵIf": 7446,
      "Stay": 7447,
      "Ġhonked": 7448,
      "Ġbatteries": 7449,
      "Ġsweep": 7450,
      "Ġvehicles": 7451,
      "Ġpresses": 7452,
      "Ġpurr": 7453,
      "Ġcalmed": 7454,
      "Ġbehaving": 7455,
      "Ġanticipation": 7456,
      "Beth": 7457,
      "Liz": 7458,
      "rup": 7459,
      "uly": 7460,
      "Ġaim": 7461,
      "Ġgall": 7462,
      "Ġnine": 7463,
      "Ġstung": 7464,
      "ĠIzzy": 7465,
      "ĠBounce": 7466,
      "Ġclerk": 7467,
      "âĤ¬,": 7468,
      "Ġgrumbled": 7469,
      "andra": 7470,
      "Ġdisc": 7471,
      "Ġchocolates": 7472,
      "Ġrelief": 7473,
      "Ġawoke": 7474,
      "Chloe": 7475,
      "Ġdelayed": 7476,
      "Ġscratching": 7477,
      "Arrr": 7478,
      "Ġties": 7479,
      "Ġwoof": 7480,
      "Ġtoss": 7481,
      "Ġhaven": 7482,
      "Ġshall": 7483,
      "Ġform": 7484,
      "Ġpeas": 7485,
      "Ġwaterfall": 7486,
      "ĠFuzzy": 7487,
      "ĠPl": 7488,
      "Ġdoorbell": 7489,
      "Ġfoxes": 7490,
      "Ġhopes": 7491,
      "Ġjobs": 7492,
      "Ġcourt": 7493,
      "Ġsalon": 7494,
      "ĠZara": 7495,
      "Ġcurl": 7496,
      "Ġtentacles": 7497,
      "Ġrotting": 7498,
      "Ġsqueaked": 7499,
      "Ġsurrendered": 7500,
      "ĠMegan": 7501,
      "ĠJonny": 7502,
      "Freddy": 7503,
      "Ġtalented": 7504,
      "Ġaudience": 7505,
      "Adam": 7506,
      "Cindy": 7507,
      "even": 7508,
      "fly": 7509,
      "jack": 7510,
      "otte": 7511,
      "Ġsheets": 7512,
      "Ġelf": 7513,
      "elle": 7514,
      "Ġknots": 7515,
      "Ġtheirs": 7516,
      "ĠLion": 7517,
      "Ġagrees": 7518,
      "Ġunfortunately": 7519,
      "Ġbusiness": 7520,
      "Ġsandpit": 7521,
      "Ġmonths": 7522,
      "Ġstored": 7523,
      "Instead": 7524,
      "Ġgrandson": 7525,
      "arlotte": 7526,
      "Ġavo": 7527,
      "Ġtires": 7528,
      "Ġsyrup": 7529,
      "Ġmosquitoes": 7530,
      "Ġlipstick": 7531,
      "Ġrows": 7532,
      "Ġincreasing": 7533,
      "Ġquacking": 7534,
      "ĠMaddy": 7535,
      "Ġflashing": 7536,
      "Ġmerma": 7537,
      "Boo": 7538,
      "Bear": 7539,
      "Karen": 7540,
      "rily": 7541,
      "Ġfut": 7542,
      "Ġdot": 7543,
      "Ġdump": 7544,
      "elie": 7545,
      "usty": 7546,
      "Ġhanding": 7547,
      "Ġgoodnight": 7548,
      "ĠPhil": 7549,
      "ipes": 7550,
      "Ġcrops": 7551,
      "Ġpatience": 7552,
      "Ġbreathed": 7553,
      "Ġgroan": 7554,
      "Ġtypes": 7555,
      "Ġinstrument": 7556,
      "Abigail": 7557,
      "ĠCrabby": 7558,
      "Ġcharacters": 7559,
      "Ġlocal": 7560,
      "Ġfuture": 7561,
      "Ke": 7562,
      "Ralph": 7563,
      "crow": 7564,
      "we": 7565,
      "ware": 7566,
      "Ġhike": 7567,
      "ĠTerry": 7568,
      "ĠSe": 7569,
      "ighing": 7570,
      "Ġplayd": 7571,
      "ickie": 7572,
      "Ġflick": 7573,
      "ĠDuck": 7574,
      "Ġdollars": 7575,
      "Ġsparks": 7576,
      "Ġriverbank": 7577,
      "Ġtidied": 7578,
      "Ġbreaths": 7579,
      "ĠPeggy": 7580,
      "Ġawhile": 7581,
      "Ġuniforms": 7582,
      "ĠMatilda": 7583,
      "Ġpaddling": 7584,
      "Ġpuppet": 7585,
      "Ġfirefighter": 7586,
      "ĠMonkey": 7587,
      "Ġrobbers": 7588,
      "Ġconnected": 7589,
      "Take": 7590,
      "bably": 7591,
      "hind": 7592,
      "Ġdep": 7593,
      "idnight": 7594,
      "Ġreason": 7595,
      "ĠAlf": 7596,
      "Ġbeautifully": 7597,
      "Ġthrown": 7598,
      "ĠSpring": 7599,
      "Joy": 7600,
      "ĠCara": 7601,
      "Ġfills": 7602,
      "Ġhops": 7603,
      "Ġforgi": 7604,
      "ĠFlo": 7605,
      "Ġprobably": 7606,
      "Ġnests": 7607,
      "ĠDaniel": 7608,
      "ĠMarie": 7609,
      "Ġsharks": 7610,
      "Ġdiamonds": 7611,
      "Choo": 7612,
      "Ġpressing": 7613,
      "Thomas": 7614,
      "ĠLiam": 7615,
      "Ġvibrant": 7616,
      "Ġprickly": 7617,
      "Honey": 7618,
      "Whiskers": 7619,
      "flowers": 7620,
      "water": 7621,
      "yl": 7622,
      "ĠLina": 7623,
      "ĠSamantha": 7624,
      "Ġbravery": 7625,
      "Ġwarmly": 7626,
      "Ġconvers": 7627,
      "Ġtalks": 7628,
      "ĠThatÃ¢": 7629,
      "ertain": 7630,
      "Ġroars": 7631,
      "Ġcheckout": 7632,
      "Ġsymbols": 7633,
      "Ġreassured": 7634,
      "cent": 7635,
      "wen": 7636,
      "ition": 7637,
      "ĠTake": 7638,
      "ility": 7639,
      "Ġrowed": 7640,
      "ĠMag": 7641,
      "ĠwhatÃ¢": 7642,
      "Ġstrum": 7643,
      "Ġflowing": 7644,
      "Ġmaker": 7645,
      "Ġconvin": 7646,
      "ĠCle": 7647,
      "Ġslowed": 7648,
      "Ġshrunk": 7649,
      "Ġexpress": 7650,
      "Ġimages": 7651,
      "Ġmeadows": 7652,
      "ĠStartled": 7653,
      "Ġfleas": 7654,
      "Ġrotten": 7655,
      "Ġpassports": 7656,
      "Ġairplanes": 7657,
      "Ġlumberjack": 7658,
      "Ġpermitted": 7659,
      "ĠWhoever": 7660,
      "Ġyielded": 7661,
      "Ġactivity": 7662,
      "pril": 7663,
      "ĠAngel": 7664,
      "ĠSplash": 7665,
      "ĠSpeedy": 7666,
      "Poppy": 7667,
      "ris": 7668,
      "Ġhood": 7669,
      "ute": 7670,
      "Ġcoach": 7671,
      "ĠJojo": 7672,
      "acy": 7673,
      "Ġsandy": 7674,
      "Ġworrying": 7675,
      "Ġaccom": 7676,
      "Ġrecorder": 7677,
      "ĠOther": 7678,
      "ippers": 7679,
      "ĠPeep": 7680,
      "Ġpantry": 7681,
      "Ġencourag": 7682,
      "Ġstrolled": 7683,
      "Ġmunching": 7684,
      "Brown": 7685,
      "Ġyelped": 7686,
      "Ġbeehive": 7687,
      "Ġgallop": 7688,
      "Listen": 7689,
      "Put": 7690,
      "piece": 7691,
      "ĠSk": 7692,
      "ĠSir": 7693,
      "rie": 7694,
      "esome": 7695,
      "ading": 7696,
      "ĠLooking": 7697,
      "ĠWil": 7698,
      "Ġthoughts": 7699,
      "Ġposs": 7700,
      "bble": 7701,
      "Ġgardens": 7702,
      "ĠFel": 7703,
      "ÅĵSure": 7704,
      "Ġteap": 7705,
      "Ġglided": 7706,
      "bee": 7707,
      "ĠGreen": 7708,
      "ĠNancy": 7709,
      "Ġjars": 7710,
      "Ġclassmates": 7711,
      "Ġstamped": 7712,
      "Ġtoothbrush": 7713,
      "Quick": 7714,
      "Ġfascinating": 7715,
      "ĠOlivia": 7716,
      "ĠMelissa": 7717,
      "Ġcustomer": 7718,
      "Excitedly": 7719,
      "Ġoppos": 7720,
      "Ġcorrectly": 7721,
      "Red": 7722,
      "mo": 7723,
      "munk": 7724,
      "Ġtipped": 7725,
      "Ġpuck": 7726,
      "Ġplaytime": 7727,
      "Ġbride": 7728,
      "Ġranger": 7729,
      "ĠLia": 7730,
      "ĠLots": 7731,
      "Ġsnug": 7732,
      "ÅĵThe": 7733,
      "angle": 7734,
      "balls": 7735,
      "Ġmodels": 7736,
      "Ġargum": 7737,
      "Ġspells": 7738,
      "Ġsprinkle": 7739,
      "ĠVelvet": 7740,
      "Ġsimply": 7741,
      "Ahoy": 7742,
      "ĠTessa": 7743,
      "Ġmember": 7744,
      "Ġsteering": 7745,
      "Curious": 7746,
      "Sn": 7747,
      "Tilly": 7748,
      "aven": 7749,
      "Ġcoug": 7750,
      "aron": 7751,
      "Ġaside": 7752,
      "ĠMidnight": 7753,
      "Ġclicked": 7754,
      "Ġchos": 7755,
      "Ġexplorer": 7756,
      "Ġteles": 7757,
      "ĠPretty": 7758,
      "Ġdef": 7759,
      "ĠGet": 7760,
      "uffin": 7761,
      "udolph": 7762,
      "ĠKaty": 7763,
      "Ġjoining": 7764,
      "Ġvisitor": 7765,
      "Ġwildflowers": 7766,
      "Ġhonking": 7767,
      "Ġawesome": 7768,
      "Ġhealing": 7769,
      "Ġcombed": 7770,
      "Ġscarecrow": 7771,
      "Ġimproved": 7772,
      "Ġresults": 7773,
      "Ġgrip": 7774,
      "Ġmermaid": 7775,
      "Ġopposite": 7776,
      "Ġchosen": 7777,
      "Ġtelescope": 7778,
      "El": 7779,
      "Surpr": 7780,
      "Ġtouc": 7781,
      "Ġhoo": 7782,
      "anced": 7783,
      "Ġthump": 7784,
      "Ġstumble": 7785,
      "Ġmomma": 7786,
      "Ġdod": 7787,
      "elope": 7788,
      "ĠJu": 7789,
      "Ġswat": 7790,
      "ĠDespite": 7791,
      "inkle": 7792,
      "Ġleaking": 7793,
      "Ġswimmer": 7794,
      "Ġconcent": 7795,
      "Ġmovements": 7796,
      "Ġdripping": 7797,
      "Ġgenie": 7798,
      "Ġshrank": 7799,
      "Ġbubbling": 7800,
      "Ġimaginary": 7801,
      "Ġwhispers": 7802,
      "Ġbelts": 7803,
      "Ġpedaled": 7804,
      "Ġdisturbing": 7805,
      "Ġstudent": 7806,
      "Ġglittered": 7807,
      "Ġrefuse": 7808,
      "ĠImmediately": 7809,
      "elieve": 7810,
      "Ġteapot": 7811,
      "Ġconcentr": 7812,
      "Like": 7813,
      "Su": 7814,
      "Zoom": 7815,
      "Zoe": 7816,
      "de": 7817,
      "Ġtin": 7818,
      "immered": 7819,
      "Ġsan": 7820,
      "atches": 7821,
      "llen": 7822,
      "Ġinj": 7823,
      "Ġthud": 7824,
      "Ġramp": 7825,
      "eline": 7826,
      "aint": 7827,
      "ĠEddie": 7828,
      "uddles": 7829,
      "Ġchill": 7830,
      "Ġchanges": 7831,
      "Ġque": 7832,
      "ĠMomma": 7833,
      "ĠFish": 7834,
      "Ġhardest": 7835,
      "Ġwilling": 7836,
      "ĠPaula": 7837,
      "ĠRoger": 7838,
      "Ġbeloved": 7839,
      "shirt": 7840,
      "Ġsnowy": 7841,
      "ĠStar": 7842,
      "Ġseller": 7843,
      "Ġlabels": 7844,
      "ĠBecky": 7845,
      "Ġmillion": 7846,
      "Ġsafer": 7847,
      "Ġmeatballs": 7848,
      "uctor": 7849,
      "Ġinstantly": 7850,
      "ĠVroom": 7851,
      "ĠElle": 7852,
      "Ġproper": 7853,
      "Ġchoices": 7854,
      "Ġannounced": 7855,
      "Ġsuggestion": 7856,
      "Betty": 7857,
      "Sadly": 7858,
      "Ġconductor": 7859,
      "Big": 7860,
      "Co": 7861,
      "Mira": 7862,
      "lied": 7863,
      "sm": 7864,
      "Ġtiss": 7865,
      "Ġwound": 7866,
      "Ġsav": 7867,
      "ces": 7868,
      "ĠShelly": 7869,
      "ige": 7870,
      "Ġearn": 7871,
      "Ġupside": 7872,
      "Ġwithin": 7873,
      "ĠJason": 7874,
      "ĠAmanda": 7875,
      "Ġscow": 7876,
      "Ġscri": 7877,
      "Ġflip": 7878,
      "ĠLuc": 7879,
      "Ġblown": 7880,
      "ĠWin": 7881,
      "ĠWilliam": 7882,
      "Ġdads": 7883,
      "Ġbund": 7884,
      "Ġtruly": 7885,
      "ĠJoanna": 7886,
      "Ġhugging": 7887,
      "ĠPin": 7888,
      "ĠPet": 7889,
      "mber": 7890,
      "ĠGary": 7891,
      "ĠRock": 7892,
      "Ġcrou": 7893,
      "asha": 7894,
      "Ġtidying": 7895,
      "Ġsupplied": 7896,
      "Ġhunters": 7897,
      "Ġcomputers": 7898,
      "Ġknocking": 7899,
      "Ġsupported": 7900,
      "Ġemerged": 7901,
      "Ġlicking": 7902,
      "intment": 7903,
      "ĠMaddie": 7904,
      "Ġcowboys": 7905,
      "Ġchipmunk": 7906,
      "Julie": 7907,
      "ĠEliza": 7908,
      "Ġaccompl": 7909,
      "Ġencouraging": 7910,
      "Ġsank": 7911,
      "pen": 7912,
      "vy": 7913,
      "Ġ4": 7914,
      "ita": 7915,
      "ĠTammy": 7916,
      "Ġgap": 7917,
      "otch": 7918,
      "Ġsteth": 7919,
      "Ġwhoo": 7920,
      "ĠBrian": 7921,
      "Ġposes": 7922,
      "ĠJoJo": 7923,
      "Joh": 7924,
      "oscope": 7925,
      "ĠGrand": 7926,
      "Ġstands": 7927,
      "Ġafar": 7928,
      "ĠOnly": 7929,
      "Ġexpecting": 7930,
      "Ġcheerfully": 7931,
      "Ġindeed": 7932,
      "Ġforgetting": 7933,
      "Ġhaircuts": 7934,
      "Ġwiggling": 7935,
      "Ġswirls": 7936,
      "Ġpeeled": 7937,
      "Ġwriggled": 7938,
      "Ġroutine": 7939,
      "True": 7940,
      "Ġtouches": 7941,
      "Ġqueens": 7942,
      "Ġstethoscope": 7943,
      "Che": 7944,
      "Run": 7945,
      "belt": 7946,
      "lo": 7947,
      "Ġlump": 7948,
      "Ġlush": 7949,
      "Ġdashed": 7950,
      "iliar": 7951,
      "amiliar": 7952,
      "Ġsoot": 7953,
      "storm": 7954,
      "ĠMoo": 7955,
      "getic": 7956,
      "Ġpand": 7957,
      "ÅĵOf": 7958,
      "Ġjoked": 7959,
      "ĠPen": 7960,
      "Ġsquaw": 7961,
      "ĠNora": 7962,
      "Ġprod": 7963,
      "Everyday": 7964,
      "Ġpresented": 7965,
      "Ġtroubles": 7966,
      "Ġrobin": 7967,
      "ĠStep": 7968,
      "Ġenergetic": 7969,
      "Ġdisplayed": 7970,
      "Ġdemanding": 7971,
      "Ġstrips": 7972,
      "ĠFrankie": 7973,
      "Ġunfamiliar": 7974,
      "Ġappreciate": 7975,
      "Which": 7976,
      "Ġunwra": 7977,
      "Ġsadder": 7978,
      "Jon": 7979,
      "Ol": 7980,
      "Pretty": 7981,
      "cher": 7982,
      "Ġfaded": 7983,
      "Ġgates": 7984,
      "orter": 7985,
      "Ġroamed": 7986,
      "Ġswitched": 7987,
      "ĠDino": 7988,
      "Ġpeak": 7989,
      "Ġfocus": 7990,
      "Ġdeal": 7991,
      "Ġseatbelt": 7992,
      "Ġchopping": 7993,
      "Ġdetermination": 7994,
      "Ġtests": 7995,
      "Ġlessons": 7996,
      "Ġskips": 7997,
      "Ġspringtime": 7998,
      "ĠAlan": 7999,
      "ĠSnowball": 8000,
      "Ġrespons": 8001,
      "Ġapplauding": 8002,
      "ĠElsie": 8003,
      "Along": 8004,
      "Maya": 8005,
      "Ġgroaned": 8006,
      "Brownie": 8007,
      "Ġcrouched": 8008,
      "Mon": 8009,
      "da": 8010,
      "father": 8011,
      "rough": 8012,
      "ĠYesterday": 8013,
      "Ġting": 8014,
      "Ġtugging": 8015,
      "Ġtopp": 8016,
      "ouraged": 8017,
      "Ġinter": 8018,
      "Ġonwards": 8019,
      "stantly": 8020,
      "allest": 8021,
      "Ġsmallest": 8022,
      "Ġspat": 8023,
      "Ġscul": 8024,
      "Ġwhoever": 8025,
      "Ġlongest": 8026,
      "ĠFire": 8027,
      "ÅĵOkay": 8028,
      "Ġdonkey": 8029,
      "Ġstores": 8030,
      "Ġcleaner": 8031,
      "acle": 8032,
      "Ġbushy": 8033,
      "ĠRudy": 8034,
      "Ġtasting": 8035,
      "uggy": 8036,
      "Ġbreathing": 8037,
      "Ġhangers": 8038,
      "Ġscratches": 8039,
      "Ġenvelop": 8040,
      "Ġburger": 8041,
      "Ġotters": 8042,
      "Ġghosts": 8043,
      "Ġbeeped": 8044,
      "Ġtaped": 8045,
      "Ġpunishment": 8046,
      "ĠOutside": 8047,
      "People": 8048,
      "ĠTyler": 8049,
      "Ġplaydate": 8050,
      "Ġconvinced": 8051,
      "Ġpandas": 8052,
      "Ġsculpt": 8053,
      "Even": 8054,
      "aret": 8055,
      "ka": 8056,
      "lers": 8057,
      "Ġbuddy": 8058,
      "ĠSw": 8059,
      "ĠHope": 8060,
      "Ġstitches": 8061,
      "ĠBonnie": 8062,
      "iciest": 8063,
      "aged": 8064,
      "Ġflock": 8065,
      "ĠLy": 8066,
      "Ġpapa": 8067,
      "Ġmoat": 8068,
      "Ġuntied": 8069,
      "ĠPick": 8070,
      "Ġfishy": 8071,
      "Ġfires": 8072,
      "empt": 8073,
      "ĠGracie": 8074,
      "Ġattempt": 8075,
      "Ġoceans": 8076,
      "ĠStri": 8077,
      "Ġscrub": 8078,
      "ĠFinny": 8079,
      "Ġgoats": 8080,
      "Ġchecking": 8081,
      "Rex": 8082,
      "Ġfreezing": 8083,
      "Quack": 8084,
      "Ġchallenged": 8085,
      "Uncle": 8086,
      "ĠJonathan": 8087,
      "Ġnibbled": 8088,
      "Ġargument": 8089,
      "mies": 8090,
      "uel": 8091,
      "Ġborn": 8092,
      "Ġcertain": 8093,
      "ĠSl": 8094,
      "ĠMother": 8095,
      "Ġseals": 8096,
      "ĠApril": 8097,
      "Ġflips": 8098,
      "ortunately": 8099,
      "ÅĵBe": 8100,
      "anda": 8101,
      "Ġdoorstep": 8102,
      "ĠGret": 8103,
      "ĠRudolph": 8104,
      "Ġcupcake": 8105,
      "Ġcupboards": 8106,
      "Ġraking": 8107,
      "Ġraising": 8108,
      "scotch": 8109,
      "Ġsprout": 8110,
      "Ġguide": 8111,
      "ebecca": 8112,
      "Ġactive": 8113,
      "Ġhummed": 8114,
      "Ġhunting": 8115,
      "Ġwraps": 8116,
      "Ġrats": 8117,
      "Ġengines": 8118,
      "Really": 8119,
      "Ġbackpacks": 8120,
      "ĠSnowman": 8121,
      "ĠAnother": 8122,
      "Alright": 8123,
      "Ġefforts": 8124,
      "Ġaliens": 8125,
      "ĠRufus": 8126,
      "Ġavoid": 8127,
      "Ġill": 8128,
      "ĠYes": 8129,
      "Ġmister": 8130,
      "Ġgul": 8131,
      "ĠSitting": 8132,
      "Ġplugged": 8133,
      "Ġwhirl": 8134,
      "Ġshorter": 8135,
      "ellie": 8136,
      "Ġpopping": 8137,
      "anted": 8138,
      "Ġtrans": 8139,
      "ĠJoh": 8140,
      "ĠGemma": 8141,
      "Ġwarmest": 8142,
      "ĠRuth": 8143,
      "Ġdryer": 8144,
      "Ġpreschool": 8145,
      "Ġgrandfather": 8146,
      "Ġscreams": 8147,
      "ĠStill": 8148,
      "Ġtwists": 8149,
      "Ġreminder": 8150,
      "Ġtravels": 8151,
      "Ġscooters": 8152,
      "Always": 8153,
      "ĠHootie": 8154,
      "print": 8155,
      "Ġmasterpiece": 8156,
      "Ġsternly": 8157,
      "Ġdistracted": 8158,
      "Jeff": 8159,
      "Cat": 8160,
      "Dog": 8161,
      "Hmm": 8162,
      "Hurry": 8163,
      "ieter": 8164,
      "rina": 8165,
      "uppy": 8166,
      "val": 8167,
      "Ġtend": 8168,
      "isdom": 8169,
      "ooly": 8170,
      "rick": 8171,
      "Ġshave": 8172,
      "Ġshallow": 8173,
      "Ġbold": 8174,
      "ĠMuffin": 8175,
      "Ġbirdhouse": 8176,
      "Ġdecl": 8177,
      "Ġcocoon": 8178,
      "Ġlevers": 8179,
      "Ġquieter": 8180,
      "Ġnicest": 8181,
      "Ġjoking": 8182,
      "ĠPing": 8183,
      "Ġunco": 8184,
      "ĠGood": 8185,
      "Ġcracks": 8186,
      "Ġcompete": 8187,
      "Ġmustered": 8188,
      "Ġattack": 8189,
      "Ġteaches": 8190,
      "Ġpractised": 8191,
      "Ġshrug": 8192,
      "ĠCharlotte": 8193,
      "ĠOuch": 8194,
      "Ġorders": 8195,
      "Ġbounces": 8196,
      "Ġprayers": 8197,
      "Ġcrystals": 8198,
      "Ġmayor": 8199,
      "ĠLiza": 8200,
      "ĠFoxy": 8201,
      "ĠSparkles": 8202,
      "ĠSeeing": 8203,
      "Ġnearer": 8204,
      "ĠAgain": 8205,
      "Maddy": 8206,
      "Outside": 8207,
      "Ġmagnifying": 8208,
      "Ġfreedom": 8209,
      "Ġdiscouraged": 8210,
      "Ġconversation": 8211,
      "Aunt": 8212,
      "Hold": 8213,
      "Lena": 8214,
      "Mabel": 8215,
      "py": 8216,
      "ĠOh": 8217,
      "Ġsigning": 8218,
      "its": 8219,
      "Ġlar": 8220,
      "ators": 8221,
      "llas": 8222,
      "ĠHar": 8223,
      "Ġformed": 8224,
      "elace": 8225,
      "ĠJilly": 8226,
      "Ġbirdy": 8227,
      "Ġfond": 8228,
      "Ġuntie": 8229,
      "Ġglisten": 8230,
      "Ġshoelace": 8231,
      "shaped": 8232,
      "Ġsweeties": 8233,
      "ĠAllie": 8234,
      "ordinary": 8235,
      "Ġbenches": 8236,
      "Ġbathing": 8237,
      "Ġdesigning": 8238,
      "ĠChickie": 8239,
      "Ġbubbly": 8240,
      "Ġgroups": 8241,
      "Ġthicker": 8242,
      "Ġaddress": 8243,
      "Ġscattering": 8244,
      "Ġaeroplanes": 8245,
      "Chirp": 8246,
      "Ġexperiment": 8247,
      "Ġoccasion": 8248,
      "Ġforgiven": 8249,
      "',": 8250,
      "Moo": 8251,
      "Milo": 8252,
      "lt": 8253,
      "rupt": 8254,
      "Ġpouch": 8255,
      "Ġhamb": 8256,
      "Ġripp": 8257,
      "Ġwhales": 8258,
      "ĠMan": 8259,
      "Ġgogg": 8260,
      "Ġjets": 8261,
      "ĠLu": 8262,
      "ĠLenny": 8263,
      "ĠWhe": 8264,
      "Ġlapt": 8265,
      "Ġtweet": 8266,
      "Ġskies": 8267,
      "arefully": 8268,
      "sol": 8269,
      "Ġfloppy": 8270,
      "Ġstew": 8271,
      "Ġfarmers": 8272,
      "Ġhopscotch": 8273,
      "ĠFlora": 8274,
      "Ġcirc": 8275,
      "Ġfits": 8276,
      "Ġscrunched": 8277,
      "Ġumbrellas": 8278,
      "Ġobserving": 8279,
      "Ġtraveling": 8280,
      "Robbie": 8281,
      "whel": 8282,
      "Ġtissue": 8283,
      "Ġsculpture": 8284,
      "Ġtransf": 8285,
      "Ġhambur": 8286,
      "!'.": 8287,
      "Bird": 8288,
      "Lizzie": 8289,
      "Ollie": 8290,
      "emy": 8291,
      "tling": 8292,
      "yle": 8293,
      "rest": 8294,
      "Ġhudd": 8295,
      "Ġfaint": 8296,
      "ider": 8297,
      "ĠSummer": 8298,
      "Ġweal": 8299,
      "unity": 8300,
      "allowed": 8301,
      "ĠgirlÃ¢": 8302,
      "Ġroam": 8303,
      "Ġcages": 8304,
      "agine": 8305,
      "ĠEric": 8306,
      "Ġflashed": 8307,
      "Ġswallowed": 8308,
      "Ġblur": 8309,
      "Ġoverwhel": 8310,
      "Ġwaters": 8311,
      "Ġwatermel": 8312,
      "aker": 8313,
      "Ġbiting": 8314,
      "Ġsweetly": 8315,
      "udged": 8316,
      "ĠNice": 8317,
      "spe": 8318,
      "Ġdecoration": 8319,
      "Ġclearly": 8320,
      "ĠStitch": 8321,
      "Ġsolving": 8322,
      "Ġtearing": 8323,
      "Ġburgers": 8324,
      "Ġquarre": 8325,
      "Ġrepairman": 8326,
      "Ġguessing": 8327,
      "Ġskirts": 8328,
      "Ġcomforting": 8329,
      "Ġcubs": 8330,
      "Ġcrowded": 8331,
      "asmine": 8332,
      "Ġobeyed": 8333,
      "Someone": 8334,
      "Ġinspired": 8335,
      "ĠPoor": 8336,
      "Ġtemptation": 8337,
      "Ġrisk": 8338,
      "Ġenvelopes": 8339,
      "Ġgoggles": 8340,
      "Ġwealth": 8341,
      "Nick": 8342,
      "Pip": 8343,
      "Ġicing": 8344,
      "Ġtuck": 8345,
      "itude": 8346,
      "oma": 8347,
      "Ġgroom": 8348,
      "ĠBer": 8349,
      "ĠBra": 8350,
      "Ġank": 8351,
      "Ġexch": 8352,
      "Ġroast": 8353,
      "Ġblade": 8354,
      "Ġblades": 8355,
      "gets": 8356,
      "ĠWo": 8357,
      "nnie": 8358,
      "Ġbraver": 8359,
      "ĠPaw": 8360,
      "Ġunderwater": 8361,
      "Ġmaj": 8362,
      "acing": 8363,
      "Ġgrassho": 8364,
      "beep": 8365,
      "Ġsingers": 8366,
      "Ġmonth": 8367,
      "Ġsoftest": 8368,
      "Ġcompared": 8369,
      "bert": 8370,
      "ouncy": 8371,
      "ĠOw": 8372,
      "ĠAnnabelle": 8373,
      "Ġbanged": 8374,
      "Ġcollap": 8375,
      "Ġheroes": 8376,
      "aitlyn": 8377,
      "Ġknobs": 8378,
      "Ġweighs": 8379,
      "Ġglittery": 8380,
      "ĠSuper": 8381,
      "Ġtextures": 8382,
      "ĠBobbie": 8383,
      "Ġtimid": 8384,
      "Ġastronauts": 8385,
      "Ġachieved": 8386,
      "Ġannoyed": 8387,
      "Ġmarveled": 8388,
      "Ġexpression": 8389,
      "Ġglistening": 8390,
      "Ġlaptop": 8391,
      "Ġwatermelon": 8392,
      "Miss": 8393,
      "Our": 8394,
      "mark": 8395,
      "ole": 8396,
      "Â¦": 8397,
      "Ġ5": 8398,
      "Ġbamb": 8399,
      "Ġdie": 8400,
      "Ġcops": 8401,
      "ĠTry": 8402,
      "Ġplo": 8403,
      "ĠBang": 8404,
      "Ġspied": 8405,
      "ĠAnt": 8406,
      "âĤ¬Â¦": 8407,
      "Ġintently": 8408,
      "ĠDra": 8409,
      "Ġkeen": 8410,
      "ĠCla": 8411,
      "Ġsurely": 8412,
      "Ġtighter": 8413,
      "Ġcoolest": 8414,
      "Ġcurrent": 8415,
      "Ġmoonlight": 8416,
      "Ġpiled": 8417,
      "ĠRemember": 8418,
      "Ġextraordinary": 8419,
      "Ġguarding": 8420,
      "Ġbumping": 8421,
      "ĠAlthough": 8422,
      "Ġfoggy": 8423,
      "Ġinvitations": 8424,
      "Ġrowing": 8425,
      "Ġspilling": 8426,
      "Ġswimsuits": 8427,
      "ĠExcitedly": 8428,
      "Ġdesperately": 8429,
      "ĠMartin": 8430,
      "ĠPinchy": 8431,
      "Ġbamboo": 8432,
      "Lulu": 8433,
      "over": 8434,
      "oard": 8435,
      "ya": 8436,
      "reg": 8437,
      "Ġpipes": 8438,
      "ĠTears": 8439,
      "Ġstalk": 8440,
      "adually": 8441,
      "ĠBess": 8442,
      "Ġdolly": 8443,
      "Ġboiling": 8444,
      "ĠMamma": 8445,
      "ĠAny": 8446,
      "ĠDoug": 8447,
      "ĠDuring": 8448,
      "Ġaboard": 8449,
      "Ġbeaver": 8450,
      "Ġsnapping": 8451,
      "Ġbluebird": 8452,
      "Ġnights": 8453,
      "ĠRich": 8454,
      "ĠKay": 8455,
      "ĠWhatÃ¢": 8456,
      "Ġlunchtime": 8457,
      "ĠZack": 8458,
      "ĠBruce": 8459,
      "Ġburnt": 8460,
      "ĠBeing": 8461,
      "Ġforgets": 8462,
      "Ġmelody": 8463,
      "Ġunpacking": 8464,
      "Ġweapons": 8465,
      "Ġhesitation": 8466,
      "aisie": 8467,
      "Betsy": 8468,
      "reya": 8469,
      "Ġbehavior": 8470,
      "ĠQuickly": 8471,
      "Ġpopsic": 8472,
      "Matt": 8473,
      "Jacob": 8474,
      "Kayla": 8475,
      "Lizzy": 8476,
      "Susan": 8477,
      "Suzie": 8478,
      "off": 8479,
      "site": 8480,
      "ering": 8481,
      "ats": 8482,
      "ching": 8483,
      "Ġshoo": 8484,
      "Ġforce": 8485,
      "Ġknit": 8486,
      "Ġcafe": 8487,
      "ĠWelcome": 8488,
      "Ġclosing": 8489,
      "ÅĵA": 8490,
      "Ġrocky": 8491,
      "ĠPa": 8492,
      "Ġbadger": 8493,
      "ĠRight": 8494,
      "Ġends": 8495,
      "Ġpatches": 8496,
      "ubbing": 8497,
      "rowave": 8498,
      "iana": 8499,
      "colored": 8500,
      "Ġgiggles": 8501,
      "Ġcloths": 8502,
      "Ġwhistles": 8503,
      "Ġmicrowave": 8504,
      "ĠLeave": 8505,
      "Ġscrubbing": 8506,
      "Ġunlo": 8507,
      "Ġbeetles": 8508,
      "Ġmanager": 8509,
      "Ġrecess": 8510,
      "Ġsniffs": 8511,
      "Ġpepperoni": 8512,
      "Ġapproach": 8513,
      "ĠShow": 8514,
      "ĠBirdie": 8515,
      "Ġstroller": 8516,
      "Ġbehaviour": 8517,
      "Ġdeclared": 8518,
      "Ġhuddled": 8519,
      "Ġoverwhelmed": 8520,
      "Ġgrasshopper": 8521,
      ",'": 8522,
      "Dolly": 8523,
      "Linda": 8524,
      "rings": 8525,
      "Ġactor": 8526,
      "Ġsection": 8527,
      "Ġlasers": 8528,
      "onfused": 8529,
      "lephant": 8530,
      "ĠHo": 8531,
      "ĠHank": 8532,
      "orse": 8533,
      "Ġinvent": 8534,
      "Ġplug": 8535,
      "rice": 8536,
      "chief": 8537,
      "Ġboil": 8538,
      "ĠAr": 8539,
      "Ġfailed": 8540,
      "ĠWooly": 8541,
      "roll": 8542,
      "Ġrunner": 8543,
      "Ġenemy": 8544,
      "Ġyells": 8545,
      "ula": 8546,
      "ĠJenn": 8547,
      "Ġjuiciest": 8548,
      "Ġsmoking": 8549,
      "Ġstirs": 8550,
      "hole": 8551,
      "ĠZiggy": 8552,
      "Spike": 8553,
      "Ġcrawls": 8554,
      "ĠBehind": 8555,
      "Ġcuddles": 8556,
      "Ġexplaining": 8557,
      "Ġvalleys": 8558,
      "Ġsqueaky": 8559,
      "Ġlanguages": 8560,
      "Ġstyles": 8561,
      "ĠCarla": 8562,
      "Ġheavily": 8563,
      "ĠStanley": 8564,
      "Ġservants": 8565,
      "Keep": 8566,
      "Ġshoelaces": 8567,
      "Ġankle": 8568,
      "Bubb": 8569,
      "Get": 8570,
      "Hop": 8571,
      "Lia": 8572,
      "Luke": 8573,
      "Pr": 8574,
      "Tara": 8575,
      "Very": 8576,
      "Ġtheat": 8577,
      "Ġwanna": 8578,
      "erm": 8579,
      "oned": 8580,
      "Ġgest": 8581,
      "ĠSandra": 8582,
      "ĠHold": 8583,
      "igger": 8584,
      "alled": 8585,
      "ĠthatÃ¢": 8586,
      "Ġfunn": 8587,
      "Ġlevel": 8588,
      "Ġtrigger": 8589,
      "ĠJody": 8590,
      "ctric": 8591,
      "ÅĵHow": 8592,
      "Ġlistens": 8593,
      "Ġcountries": 8594,
      "Ġimportance": 8595,
      "Ġelectric": 8596,
      "cycles": 8597,
      "Ġattend": 8598,
      "Ġearrings": 8599,
      "Ġbats": 8600,
      "ĠBrad": 8601,
      "Ġangrily": 8602,
      "Ġrelaxing": 8603,
      "Ġperformers": 8604,
      "Ġstacking": 8605,
      "Ġpedaling": 8606,
      "ÅĵWeÃ¢": 8607,
      "Ġmesmerised": 8608,
      "Ġsirens": 8609,
      "ĠYog": 8610,
      "ĠLibby": 8611,
      "Ġdetails": 8612,
      "ĠJoanne": 8613,
      "Ġtheatre": 8614,
      "Friend": 8615,
      "Tiny": 8616,
      "free": 8617,
      "field": 8618,
      "how": 8619,
      "oss": 8620,
      "why": 8621,
      "Ãĥ": 8622,
      "Ġbound": 8623,
      "Ġgoo": 8624,
      "ĠSasha": 8625,
      "Ġwhizz": 8626,
      "ĠBoo": 8627,
      "Ġanger": 8628,
      "Ġalley": 8629,
      "ĠLight": 8630,
      "asant": 8631,
      "bbi": 8632,
      "ĠJose": 8633,
      "ĠJosie": 8634,
      "ÅĵMaybe": 8635,
      "Ġcleared": 8636,
      "ĠPear": 8637,
      "ĠPiggy": 8638,
      "ĠGabby": 8639,
      "ĠRat": 8640,
      "ĠRiley": 8641,
      "ĠRebecca": 8642,
      "Ġtops": 8643,
      "Ġpetting": 8644,
      "Ġtowns": 8645,
      "Ġtownspe": 8646,
      "ĠFlutter": 8647,
      "ĠOink": 8648,
      "Ġanswering": 8649,
      "ĠZee": 8650,
      "Ġadds": 8651,
      "ĠLeah": 8652,
      "Ġzips": 8653,
      "Ġcampsite": 8654,
      "Ġcheaper": 8655,
      "Ġawful": 8656,
      "Ġrescuing": 8657,
      "ĠRosa": 8658,
      "...\"": 8659,
      "ĠOliver": 8660,
      "Jenna": 8661,
      "Mikey": 8662,
      "Ġamongst": 8663,
      "Ġsnowflake": 8664,
      "Ġembarrassing": 8665,
      "Ġplopped": 8666,
      "Ġtownspeople": 8667,
      "Fro": 8668,
      "Oops": 8669,
      "Sophia": 8670,
      "hh": 8671,
      "Ġbas": 8672,
      "Ġdart": 8673,
      "Ġhab": 8674,
      "Ġweighing": 8675,
      "Ġboards": 8676,
      "Ġnoticing": 8677,
      "ĠEd": 8678,
      "Ġchin": 8679,
      "ĠWisdom": 8680,
      "ĠDe": 8681,
      "oured": 8682,
      "Ġtrim": 8683,
      "ÅĵMummy": 8684,
      "Ġdifferently": 8685,
      "Ġconfus": 8686,
      "ĠRicky": 8687,
      "Ġcris": 8688,
      "Jacky": 8689,
      "Jackie": 8690,
      "Ġlanding": 8691,
      "Ġalongside": 8692,
      "Ġpolka": 8693,
      "Ġdespite": 8694,
      "Ġzooms": 8695,
      "Ġtunes": 8696,
      "Ġ''": 8697,
      "Ġprizes": 8698,
      "ocular": 8699,
      "Ġbinocular": 8700,
      "Ġkayaking": 8701,
      "Ġstomp": 8702,
      "Ġkneeling": 8703,
      "Davey": 8704,
      "Ġpuppets": 8705,
      "Ġspills": 8706,
      "Ġpounds": 8707,
      "Ġbeaming": 8708,
      "ĠTwinkle": 8709,
      "Ġscenery": 8710,
      "ĠSkip": 8711,
      "Ġlarger": 8712,
      "Ġconfusion": 8713,
      "Dear": 8714,
      "Gu": 8715,
      "Nutty": 8716,
      "ĠYum": 8717,
      "Only": 8718,
      "vering": 8719,
      "Ġstur": 8720,
      "Ġyum": 8721,
      "vement": 8722,
      "uno": 8723,
      "ĠBelle": 8724,
      "Ġshattered": 8725,
      "ĠMoon": 8726,
      "Ġscut": 8727,
      "Ġaloud": 8728,
      "quet": 8729,
      "Ġexplo": 8730,
      "Ġslips": 8731,
      "ÅĵWell": 8732,
      "ĠPink": 8733,
      "ĠGinger": 8734,
      "uliar": 8735,
      "Ġmovement": 8736,
      "Ġsets": 8737,
      "Ġsprang": 8738,
      "Ġprog": 8739,
      "Ġwhiskers": 8740,
      "Ġmysteries": 8741,
      "Ġactions": 8742,
      "Still": 8743,
      "Ġtents": 8744,
      "Ġhoops": 8745,
      "ibbit": 8746,
      "Ġterrified": 8747,
      "Ġbicycles": 8748,
      "iolet": 8749,
      "Ġhooks": 8750,
      "Remy": 8751,
      "Ġinvites": 8752,
      "Ġartwork": 8753,
      "ÅĵYouÃ¢": 8754,
      "Ġallowance": 8755,
      "Ġnibbling": 8756,
      "ĠMona": 8757,
      "ibly": 8758,
      "Ġconcerned": 8759,
      "Ġpeculiar": 8760,
      "Julia": 8761,
      "ĠSunshine": 8762,
      "Ġhundreds": 8763,
      "ĠFelix": 8764,
      "Ġhooves": 8765,
      "Suzy": 8766,
      "Ġaccomplish": 8767,
      "solute": 8768,
      "Confused": 8769,
      "Gabby": 8770,
      "Im": 8771,
      "Lou": 8772,
      "Slowly": 8773,
      "ai": 8774,
      "car": 8775,
      "ders": 8776,
      "ien": 8777,
      "lock": 8778,
      "rons": 8779,
      "this": 8780,
      "Ġicky": 8781,
      "Ġsens": 8782,
      "ilted": 8783,
      "ĠSus": 8784,
      "ative": 8785,
      "Ġyaw": 8786,
      "Ġyumm": 8787,
      "ĠMaisie": 8788,
      "arky": 8789,
      "urrender": 8790,
      "Ġfault": 8791,
      "ift": 8792,
      "ashes": 8793,
      "ĠDuke": 8794,
      "Ġcloses": 8795,
      "Ġench": 8796,
      "ÅĵAre": 8797,
      "ÅĵNow": 8798,
      "ÅĵGood": 8799,
      "ĠPuppy": 8800,
      "Ġdangers": 8801,
      "Ġunable": 8802,
      "Ġfinal": 8803,
      "ogo": 8804,
      "ĠRusty": 8805,
      "ĠCould": 8806,
      "Ġdrip": 8807,
      "ĠNut": 8808,
      "ĠKathy": 8809,
      "Ġbait": 8810,
      "ĠChoo": 8811,
      "Ġpills": 8812,
      "Ġsurv": 8813,
      "Ġaprons": 8814,
      "Ġmotorcycles": 8815,
      "Ġmatters": 8816,
      "Ġsupermark": 8817,
      "ĠSmoke": 8818,
      "Ġerase": 8819,
      "Ġdestroying": 8820,
      "Ġchains": 8821,
      "ĠSparkle": 8822,
      "Ġchatting": 8823,
      "ĠOrange": 8824,
      "ĠAmi": 8825,
      "Ġundone": 8826,
      "Ġinjured": 8827,
      "ĠPenelope": 8828,
      "Ġunwrapped": 8829,
      "Ġbinoculars": 8830,
      "Ġyawning": 8831,
      "\"!": 8832,
      "Jump": 8833,
      "Lucky": 8834,
      "wing": 8835,
      "ĠĠ": 8836,
      "Ġcuc": 8837,
      "Ġrather": 8838,
      "Ġlies": 8839,
      "ĠmomÃ¢": 8840,
      "Ġwhir": 8841,
      "ĠBouncy": 8842,
      "ĠJasmine": 8843,
      "ĠWigg": 8844,
      "Ġoldest": 8845,
      "Ġvowed": 8846,
      "Ġballer": 8847,
      "Ġability": 8848,
      "Ġshinier": 8849,
      "ĠCarefully": 8850,
      "Ġfarms": 8851,
      "Ġhatched": 8852,
      "Ġbowing": 8853,
      "Ġmesses": 8854,
      "ĠJennie": 8855,
      "eremy": 8856,
      "Ġdragonfly": 8857,
      "ĠAndrew": 8858,
      "Ġmarking": 8859,
      "Ġlifts": 8860,
      "Ġsacks": 8861,
      "Ġtesting": 8862,
      "Ġgasp": 8863,
      "Ġmelons": 8864,
      "ĠAlbert": 8865,
      "Ġnewspapers": 8866,
      "uction": 8867,
      "ĠVery": 8868,
      "Ġventure": 8869,
      "ĠCarol": 8870,
      "Ġcharacter": 8871,
      "Ġdesperate": 8872,
      "Ġsweaters": 8873,
      "Ġdepths": 8874,
      "Ġsoothing": 8875,
      "Ġinterrupt": 8876,
      "Ġcircled": 8877,
      "Ġcollapsed": 8878,
      "ĠHopper": 8879,
      "Ġsupermarket": 8880,
      "Tess": 8881,
      "book": 8882,
      "dream": 8883,
      "Ġtumm": 8884,
      "Ġsipped": 8885,
      "Ġbou": 8886,
      "Ġfist": 8887,
      "Ġcine": 8888,
      "erg": 8889,
      "ĠSal": 8890,
      "Ġinches": 8891,
      "etched": 8892,
      "Ġreapp": 8893,
      "Ġroyal": 8894,
      "Ġmanners": 8895,
      "ifer": 8896,
      "ĠDee": 8897,
      "Ġhollow": 8898,
      "Ġslam": 8899,
      "Ġslapping": 8900,
      "Ġfoam": 8901,
      "ĠGray": 8902,
      "airy": 8903,
      "Ġmats": 8904,
      "Ġbarb": 8905,
      "Ġlunchbox": 8906,
      "Ġhandleb": 8907,
      "ĠPatrick": 8908,
      "cases": 8909,
      "Ġadmiration": 8910,
      "Ġbanging": 8911,
      "Finn": 8912,
      "Ġchatted": 8913,
      "Ġaston": 8914,
      "Ġappreciation": 8915,
      "Ġappreciated": 8916,
      "ĠAuntie": 8917,
      "Sadie": 8918,
      "Chirpy": 8919,
      "Ġsturdy": 8920,
      "solutely": 8921,
      "Ġtummies": 8922,
      "Ġcinema": 8923,
      "Boys": 8924,
      "Kiki": 8925,
      "Mina": 8926,
      "Open": 8927,
      "hi": 8928,
      "njoy": 8929,
      "rat": 8930,
      "uild": 8931,
      "Ġtips": 8932,
      "Ġtot": 8933,
      "Ġbiscuit": 8934,
      "Ġcoop": 8935,
      "ĠToni": 8936,
      "Ġgerm": 8937,
      "isions": 8938,
      "ĠSid": 8939,
      "ormed": 8940,
      "etah": 8941,
      "Ġdaydream": 8942,
      "Ġrumbled": 8943,
      "ĠBuggy": 8944,
      "Ġdozed": 8945,
      "ĠMinnie": 8946,
      "Ġexh": 8947,
      "Ġcanv": 8948,
      "ĠButter": 8949,
      "ĠEr": 8950,
      "ĠElephant": 8951,
      "abrina": 8952,
      "Ġlava": 8953,
      "Ġposit": 8954,
      "Ġhovered": 8955,
      "Ġhovering": 8956,
      "Ġbeast": 8957,
      "Ġaroma": 8958,
      "ÅĵOk": 8959,
      "Ġcheetah": 8960,
      "Ġowns": 8961,
      "ĠCr": 8962,
      "ĠCro": 8963,
      "ĠColin": 8964,
      "Ġstepping": 8965,
      "Ġmagically": 8966,
      "Ġsnowing": 8967,
      "iggie": 8968,
      "Ġdrying": 8969,
      "Ġkeyhole": 8970,
      "Ġstorms": 8971,
      "Ġshyly": 8972,
      "ĠOur": 8973,
      "Ġtanks": 8974,
      "ĠReady": 8975,
      "Ġhippos": 8976,
      "Ġclubs": 8977,
      "Ġmugs": 8978,
      "Ġrags": 8979,
      "Ġbeeping": 8980,
      "Ġrewarded": 8981,
      "Ġapologised": 8982,
      "ĠCatty": 8983,
      "ĠCathy": 8984,
      "ĠJanet": 8985,
      "Ġswirling": 8986,
      "ĠMelody": 8987,
      "Ġbothering": 8988,
      "Patty": 8989,
      "Ġpassenger": 8990,
      "Ġflashes": 8991,
      "Ġopport": 8992,
      "Ġgranted": 8993,
      "Snow": 8994,
      "prints": 8995,
      "Ġballerina": 8996,
      "Ġbouquet": 8997,
      "Ġhandlebars": 8998,
      "Bad": 8999,
      "Mother": 9000,
      "Sunny": 9001,
      "barrow": 9002,
      "con": 9003,
      "hanie": 9004,
      "oor": 9005,
      "Ġhips": 9006,
      "Ġfries": 9007,
      "Ġda": 9008,
      "Ġding": 9009,
      "Ġmashed": 9010,
      "ĠTime": 9011,
      "iring": 9012,
      "igaret": 9013,
      "Ġonline": 9014,
      "seed": 9015,
      "Ġwhipped": 9016,
      "ĠBar": 9017,
      "ĠBug": 9018,
      "Ġdock": 9019,
      "ĠAmber": 9020,
      "Ġbirdseed": 9021,
      "Ġparks": 9022,
      "abra": 9023,
      "Ġmoons": 9024,
      "Ġbud": 9025,
      "Ġshines": 9026,
      "Ġuntangle": 9027,
      "ĠFreya": 9028,
      "andel": 9029,
      "Ġthrone": 9030,
      "ĠGold": 9031,
      "ĠGwen": 9032,
      "Ġparted": 9033,
      "Ġbabys": 9034,
      "Does": 9035,
      "ĠChuck": 9036,
      "ĠSte": 9037,
      "Startled": 9038,
      "Ġfears": 9039,
      "Ġminds": 9040,
      "Ġwheelbarrow": 9041,
      "Ġstriped": 9042,
      "Ġdesks": 9043,
      "Ġhopeful": 9044,
      "Ġpads": 9045,
      "Ġbulbs": 9046,
      "Ġcapture": 9047,
      "ĠCrab": 9048,
      "Ġroute": 9049,
      "Ġsquirmed": 9050,
      "Jessica": 9051,
      "Ġgalloped": 9052,
      "Ġtoppings": 9053,
      "Ġenchanted": 9054,
      "Li": 9055,
      "ae": 9056,
      "bed": 9057,
      "cat": 9058,
      "lings": 9059,
      "mie": 9060,
      "Ġcigaret": 9061,
      "Ġmur": 9062,
      "Ġmunched": 9063,
      "ĠTe": 9064,
      "Ġgummy": 9065,
      "ĠSky": 9066,
      "oto": 9067,
      "Ġmommies": 9068,
      "ĠBa": 9069,
      "chard": 9070,
      "Ġshimmered": 9071,
      "Ġboiled": 9072,
      "urtle": 9073,
      "ongrat": 9074,
      "Ġswallow": 9075,
      "Ġchatter": 9076,
      "Ġlaces": 9077,
      "Ġpollen": 9078,
      "Ġcarefree": 9079,
      "Ġorchard": 9080,
      "ItÃ¢": 9081,
      "ĠPee": 9082,
      "ĠGirl": 9083,
      "ĠInstantly": 9084,
      "ĠKaitlyn": 9085,
      "Ġarmor": 9086,
      "Ġvisitors": 9087,
      "Ġattacked": 9088,
      "Ġstretches": 9089,
      "Ġfrustration": 9090,
      "Ġmedals": 9091,
      "Todd": 9092,
      "Ġjogger": 9093,
      "Ġmiracle": 9094,
      "Ġsuitcases": 9095,
      "Ġthunderstorm": 9096,
      "Ġcrocodiles": 9097,
      "Ġhelicopters": 9098,
      "Ġalligators": 9099,
      "Ġstomping": 9100,
      "ĠAlways": 9101,
      "Ġstructures": 9102,
      "Ġsqueal": 9103,
      "ĠSharing": 9104,
      "Ġfireflies": 9105,
      "Ġtippy": 9106,
      "Ġtempted": 9107,
      "Ġslithered": 9108,
      "Ġdefeat": 9109,
      "ĠAlfred": 9110,
      "Ġresponsible": 9111,
      "ĠPearl": 9112,
      "Ġastonished": 9113,
      "Ġexhib": 9114,
      "Ġbabysitter": 9115,
      "ongratul": 9116,
      "Bo": 9117,
      "Bless": 9118,
      "Free": 9119,
      "Lu": 9120,
      "Pl": 9121,
      "Rain": 9122,
      "ridge": 9123,
      "Ġlil": 9124,
      "Ġwasted": 9125,
      "Ġheels": 9126,
      "Ġpounced": 9127,
      "Ġgorge": 9128,
      "isbee": 9129,
      "Ġwhined": 9130,
      "alter": 9131,
      "alia": 9132,
      "Ġjing": 9133,
      "Ġjigg": 9134,
      "Ġparking": 9135,
      "Ġknives": 9136,
      "Ġdecisions": 9137,
      "abeth": 9138,
      "ĠWas": 9139,
[...]
